{
  "version": "1.0",
  "truncation": null,
  "padding": null,
  "added_tokens": [
    {
      "id": 0,
      "content": "[UNK]",
      "single_word": false,
      "lstrip": false,
      "rstrip": false,
      "normalized": false,
      "special": true
    },
    {
      "id": 1,
      "content": "[CLS]",
      "single_word": false,
      "lstrip": false,
      "rstrip": false,
      "normalized": false,
      "special": true
    },
    {
      "id": 2,
      "content": "[SEP]",
      "single_word": false,
      "lstrip": false,
      "rstrip": false,
      "normalized": false,
      "special": true
    },
    {
      "id": 3,
      "content": "[PAD]",
      "single_word": false,
      "lstrip": false,
      "rstrip": false,
      "normalized": false,
      "special": true
    },
    {
      "id": 4,
      "content": "[MASK]",
      "single_word": false,
      "lstrip": false,
      "rstrip": false,
      "normalized": false,
      "special": true
    }
  ],
  "normalizer": null,
  "pre_tokenizer": {
    "type": "Whitespace"
  },
  "post_processor": null,
  "decoder": null,
  "model": {
    "type": "WordPiece",
    "unk_token": "[UNK]",
    "continuing_subword_prefix": "##",
    "max_input_chars_per_word": 100,
    "vocab": {
      "[UNK]": 0,
      "[CLS]": 1,
      "[SEP]": 2,
      "[PAD]": 3,
      "[MASK]": 4,
      "!": 5,
      "\"": 6,
      "#": 7,
      "$": 8,
      "%": 9,
      "&": 10,
      "'": 11,
      "(": 12,
      ")": 13,
      "*": 14,
      "+": 15,
      ",": 16,
      "-": 17,
      ".": 18,
      "/": 19,
      "0": 20,
      "1": 21,
      "2": 22,
      "3": 23,
      "4": 24,
      "5": 25,
      "6": 26,
      "7": 27,
      "8": 28,
      "9": 29,
      ":": 30,
      ";": 31,
      "<": 32,
      "=": 33,
      ">": 34,
      "?": 35,
      "@": 36,
      "A": 37,
      "B": 38,
      "C": 39,
      "D": 40,
      "E": 41,
      "F": 42,
      "G": 43,
      "H": 44,
      "I": 45,
      "J": 46,
      "K": 47,
      "L": 48,
      "M": 49,
      "N": 50,
      "O": 51,
      "P": 52,
      "Q": 53,
      "R": 54,
      "S": 55,
      "T": 56,
      "U": 57,
      "V": 58,
      "W": 59,
      "X": 60,
      "Y": 61,
      "Z": 62,
      "[": 63,
      "\\": 64,
      "]": 65,
      "^": 66,
      "_": 67,
      "`": 68,
      "a": 69,
      "b": 70,
      "c": 71,
      "d": 72,
      "e": 73,
      "f": 74,
      "g": 75,
      "h": 76,
      "i": 77,
      "j": 78,
      "k": 79,
      "l": 80,
      "m": 81,
      "n": 82,
      "o": 83,
      "p": 84,
      "q": 85,
      "r": 86,
      "s": 87,
      "t": 88,
      "u": 89,
      "v": 90,
      "w": 91,
      "x": 92,
      "y": 93,
      "z": 94,
      "{": 95,
      "|": 96,
      "}": 97,
      "~": 98,
      "##E": 99,
      "##x": 100,
      "##p": 101,
      "##a": 102,
      "##n": 103,
      "##d": 104,
      "##e": 105,
      "##t": 106,
      "##C": 107,
      "##9": 108,
      "##g": 109,
      "##3": 110,
      "##5": 111,
      "##7": 112,
      "##0": 113,
      "##6": 114,
      "##8": 115,
      "##o": 116,
      "##i": 117,
      "##r": 118,
      "##c": 119,
      "##1": 120,
      "##2": 121,
      "##4": 122,
      "##m": 123,
      "##h": 124,
      "##b": 125,
      "##s": 126,
      "##u": 127,
      "##v": 128,
      "##z": 129,
      "##j": 130,
      "##D": 131,
      "##R": 132,
      "##l": 133,
      "##w": 134,
      "##A": 135,
      "##S": 136,
      "##T": 137,
      "##M": 138,
      "##q": 139,
      "##I": 140,
      "##V": 141,
      "##H": 142,
      "##y": 143,
      "##f": 144,
      "##G": 145,
      "##N": 146,
      "##O": 147,
      "##L": 148,
      "##P": 149,
      "##K": 150,
      "##B": 151,
      "##k": 152,
      "##Y": 153,
      "##F": 154,
      "##W": 155,
      "##X": 156,
      "##U": 157,
      "##Q": 158,
      "##J": 159,
      "##_": 160,
      "##)": 161,
      "##*": 162,
      "##.": 163,
      "##Z": 164,
      "##(": 165,
      "##,": 166,
      "##+": 167,
      "##;": 168,
      "##%": 169,
      "##'": 170,
      "##-": 171,
      "##?": 172,
      "##{": 173,
      "###": 174,
      "##\"": 175,
      "##]": 176,
      "##}": 177,
      "##$": 178,
      "##\\": 179,
      "##[": 180,
      "##:": 181,
      "##/": 182,
      "##~": 183,
      "##=": 184,
      "##>": 185,
      "##!": 186,
      "##<": 187,
      "##&": 188,
      "##|": 189,
      "##@": 190,
      "##^": 191,
      "##`": 192,
      "##ti": 193,
      "##er": 194,
      "##on": 195,
      "##en": 196,
      "th": 197,
      "##es": 198,
      "##in": 199,
      "##ed": 200,
      "##al": 201,
      "the": 202,
      "##or": 203,
      "##nd": 204,
      "##at": 205,
      "##an": 206,
      "in": 207,
      "of": 208,
      "##tion": 209,
      "##ar": 210,
      "##ro": 211,
      "and": 212,
      "##ic": 213,
      "##it": 214,
      "##is": 215,
      "##as": 216,
      "##el": 217,
      "##re": 218,
      "##ent": 219,
      "##ing": 220,
      "##ec": 221,
      "##ation": 222,
      "##ol": 223,
      "to": 224,
      "##om": 225,
      "##et": 226,
      "##ac": 227,
      "##ur": 228,
      "##ul": 229,
      "##le": 230,
      "20": 231,
      "##os": 232,
      "##ig": 233,
      "##th": 234,
      "##us": 235,
      "##id": 236,
      "10": 237,
      "##il": 238,
      "##ith": 239,
      "##tr": 240,
      "##ve": 241,
      "##ter": 242,
      "Th": 243,
      "for": 244,
      "##em": 245,
      "##ati": 246,
      "with": 247,
      "##ce": 248,
      "##ly": 249,
      "##am": 250,
      "con": 251,
      "re": 252,
      "pro": 253,
      "an": 254,
      "##ere": 255,
      "##ess": 256,
      "##ts": 257,
      "##im": 258,
      "##uc": 259,
      "##od": 260,
      "##ab": 261,
      "##ow": 262,
      "##um": 263,
      "as": 264,
      "##if": 265,
      "st": 266,
      "##ot": 267,
      "##tic": 268,
      "##ity": 269,
      "##ut": 270,
      "##oc": 271,
      "ex": 272,
      "al": 273,
      "is": 274,
      "##ir": 275,
      "##ys": 276,
      "##ell": 277,
      "##ng": 278,
      "The": 279,
      "##ated": 280,
      "##ag": 281,
      "##ers": 282,
      "##ion": 283,
      "on": 284,
      "##og": 285,
      "##op": 286,
      "##ud": 287,
      "##ad": 288,
      "##ment": 289,
      "##ev": 290,
      "was": 291,
      "##ain": 292,
      "res": 293,
      "##ate": 294,
      "ac": 295,
      "com": 296,
      "were": 297,
      "that": 298,
      "##un": 299,
      "##ch": 300,
      "be": 301,
      "##ib": 302,
      "##ap": 303,
      "by": 304,
      "##ted": 305,
      "##rom": 306,
      ").": 307,
      "##iv": 308,
      "##pl": 309,
      "##ure": 310,
      "or": 311,
      "wh": 312,
      "In": 313,
      "##ep": 314,
      "##ical": 315,
      "##00": 316,
      "##ant": 317,
      "us": 318,
      "##igh": 319,
      "201": 320,
      "ch": 321,
      "##ence": 322,
      "##up": 323,
      "##ff": 324,
      "##ri": 325,
      "##qu": 326,
      "##iz": 327,
      "are": 328,
      "##ub": 329,
      "##ine": 330,
      "##ay": 331,
      "dis": 332,
      "at": 333,
      "from": 334,
      "##te": 335,
      "##ase": 336,
      "im": 337,
      "##ting": 338,
      "cell": 339,
      "##ents": 340,
      "##ang": 341,
      "##ies": 342,
      "##fer": 343,
      "pr": 344,
      "##pec": 345,
      "##ou": 346,
      "tr": 347,
      "##orm": 348,
      "comp": 349,
      "stud": 350,
      "inc": 351,
      "202": 352,
      "11": 353,
      "##and": 354,
      "ad": 355,
      "##ign": 356,
      "##ens": 357,
      "##ear": 358,
      "sh": 359,
      "##ia": 360,
      "200": 361,
      "gen": 362,
      "##ans": 363,
      "##ations": 364,
      "##tiv": 365,
      "##ial": 366,
      "19": 367,
      "##por": 368,
      "##ore": 369,
      "##ip": 370,
      "exp": 371,
      "ind": 372,
      "##olog": 373,
      "##able": 374,
      "##ress": 375,
      "),": 376,
      "##ition": 377,
      "##ous": 378,
      "##ific": 379,
      "per": 380,
      "##ons": 381,
      "##enti": 382,
      "##anc": 383,
      "##ich": 384,
      "12": 385,
      "##ver": 386,
      "##ect": 387,
      "##ther": 388,
      "##yp": 389,
      "##tive": 390,
      "##ors": 391,
      "##enc": 392,
      "ne": 393,
      "##ug": 394,
      "en": 395,
      "##ance": 396,
      "par": 397,
      "##act": 398,
      "ass": 399,
      "##ary": 400,
      "Ch": 401,
      "inf": 402,
      "co": 403,
      "de": 404,
      "##ph": 405,
      "##evel": 406,
      "str": 407,
      "##st": 408,
      "##ard": 409,
      "inter": 410,
      "anal": 411,
      "we": 412,
      "##our": 413,
      "dif": 414,
      "##ach": 415,
      "##ual": 416,
      "not": 417,
      "##eth": 418,
      "##ong": 419,
      "##ata": 420,
      "##ak": 421,
      "this": 422,
      "ap": 423,
      "##ely": 424,
      "##age": 425,
      "##est": 426,
      "cl": 427,
      "pre": 428,
      "et": 429,
      "rec": 430,
      "sign": 431,
      "pati": 432,
      "##ath": 433,
      "mod": 434,
      "##vi": 435,
      "##etw": 436,
      "##ue": 437,
      "##erm": 438,
      "##ative": 439,
      "study": 440,
      "eff": 441,
      "##end": 442,
      "ph": 443,
      "cont": 444,
      "##duc": 445,
      "gro": 446,
      "##ased": 447,
      "##ew": 448,
      "pl": 449,
      "##ection": 450,
      "13": 451,
      "##ari": 452,
      "##all": 453,
      "differ": 454,
      "##ular": 455,
      "cells": 456,
      "15": 457,
      "rel": 458,
      "##eal": 459,
      "##16": 460,
      "00": 461,
      "high": 462,
      "ha": 463,
      "##oll": 464,
      "##ist": 465,
      "##pro": 466,
      "##ple": 467,
      "##een": 468,
      "reg": 469,
      "which": 470,
      "##ost": 471,
      "analys": 472,
      "cons": 473,
      "##ese": 474,
      "di": 475,
      "##ge": 476,
      "trans": 477,
      "##ast": 478,
      ".,": 479,
      "##ory": 480,
      "ob": 481,
      "spec": 482,
      "##form": 483,
      "##ression": 484,
      "ab": 485,
      "##ates": 486,
      "se": 487,
      "14": 488,
      "##ution": 489,
      "sc": 490,
      "show": 491,
      "##ater": 492,
      "##ome": 493,
      "##etween": 494,
      "have": 495,
      "between": 496,
      "data": 497,
      "patients": 498,
      "##ill": 499,
      "##rol": 500,
      "##NA": 501,
      "##tein": 502,
      "me": 503,
      "16": 504,
      "Fig": 505,
      "##ding": 506,
      "##erv": 507,
      "##ym": 508,
      "##ight": 509,
      "using": 510,
      "##yst": 511,
      "tre": 512,
      "sub": 513,
      "##ros": 514,
      "##ealth": 515,
      "##iti": 516,
      "17": 517,
      "##ech": 518,
      "int": 519,
      "all": 520,
      "un": 521,
      "ev": 522,
      "--": 523,
      "##cess": 524,
      "##ility": 525,
      "##ob": 526,
      "can": 527,
      "##oci": 528,
      "##ction": 529,
      "##ally": 530,
      "##dition": 531,
      "##mun": 532,
      "##10": 533,
      "analysis": 534,
      "18": 535,
      "##ov": 536,
      "##are": 537,
      "##ci": 538,
      "##per": 539,
      "##ology": 540,
      "Al": 541,
      "##tin": 542,
      "##yl": 543,
      "##ound": 544,
      "##ass": 545,
      "resul": 546,
      "##ose": 547,
      "##pt": 548,
      "##oth": 549,
      "signific": 550,
      "mic": 551,
      "##res": 552,
      "am": 553,
      "St": 554,
      "sam": 555,
      "det": 556,
      "##ide": 557,
      "##tim": 558,
      "group": 559,
      "##ail": 560,
      "ar": 561,
      "##ulation": 562,
      "##one": 563,
      "##ever": 564,
      "+-": 565,
      "##ating": 566,
      "##ber": 567,
      "##trib": 568,
      "##ied": 569,
      "cor": 570,
      "##lud": 571,
      "##ond": 572,
      "activ": 573,
      "An": 574,
      "##so": 575,
      "val": 576,
      "##ood": 577,
      "##11": 578,
      "med": 579,
      "Res": 580,
      "protein": 581,
      "incre": 582,
      "Bi": 583,
      "model": 584,
      "##uld": 585,
      "significant": 586,
      "used": 587,
      "This": 588,
      "##ork": 589,
      "##av": 590,
      "und": 591,
      "sur": 592,
      "level": 593,
      "vari": 594,
      "pos": 595,
      "##ues": 596,
      "##yn": 597,
      "it": 598,
      "##port": 599,
      "##ected": 600,
      "sup": 601,
      "##acter": 602,
      "le": 603,
      "##unction": 604,
      "##12": 605,
      "##earch": 606,
      "pres": 607,
      "##iss": 608,
      "also": 609,
      "##ox": 610,
      "##ack": 611,
      "bi": 612,
      "##fter": 613,
      "tim": 614,
      "##ystem": 615,
      "25": 616,
      "##ive": 617,
      "##ish": 618,
      "their": 619,
      "##ile": 620,
      "inv": 621,
      "##ancer": 622,
      "##ethod": 623,
      "##uch": 624,
      "##ences": 625,
      "compar": 626,
      "resp": 627,
      "anti": 628,
      "100": 629,
      "sp": 630,
      "30": 631,
      "##atment": 632,
      "includ": 633,
      "##ases": 634,
      "24": 635,
      "##ized": 636,
      "##ik": 637,
      "do": 638,
      "##gr": 639,
      "##20": 640,
      "##ization": 641,
      "has": 642,
      "##action": 643,
      "##38": 644,
      "des": 645,
      "##ree": 646,
      "##ants": 647,
      "man": 648,
      "these": 649,
      "##ects": 650,
      "##wo": 651,
      "##ord": 652,
      "than": 653,
      "##lu": 654,
      "##ene": 655,
      "associ": 656,
      "ag": 657,
      "Com": 658,
      "control": 659,
      "met": 660,
      "##plic": 661,
      "##eg": 662,
      "##15": 663,
      "##eng": 664,
      "22": 665,
      "bl": 666,
      "been": 667,
      "##uring": 668,
      "##ures": 669,
      "We": 670,
      "##14": 671,
      "##cl": 672,
      "other": 673,
      "treatment": 674,
      "##atic": 675,
      "Un": 676,
      "%)": 677,
      "##ult": 678,
      "##tern": 679,
      "Med": 680,
      "##13": 681,
      "red": 682,
      "expression": 683,
      "##als": 684,
      "##entr": 685,
      "dec": 686,
      "23": 687,
      "fact": 688,
      "##ra": 689,
      "##evelop": 690,
      "##uct": 691,
      "more": 692,
      "Pro": 693,
      "acc": 694,
      "##tain": 695,
      "##ace": 696,
      "##ite": 697,
      "out": 698,
      "low": 699,
      "partic": 700,
      "##aus": 701,
      "##ivers": 702,
      "199": 703,
      "##ne": 704,
      "##tal": 705,
      "##ism": 706,
      "no": 707,
      "##ature": 708,
      "two": 709,
      "id": 710,
      "##und": 711,
      "based": 712,
      "##ease": 713,
      "may": 714,
      "##ark": 715,
      "gene": 716,
      "##entif": 717,
      "system": 718,
      "function": 719,
      "##ian": 720,
      "##yt": 721,
      "##erg": 722,
      "Ac": 723,
      "perform": 724,
      "##17": 725,
      "33": 726,
      "##19": 727,
      "##osis": 728,
      "health": 729,
      "after": 730,
      "exper": 731,
      "##ological": 732,
      "em": 733,
      "##out": 734,
      "##hib": 735,
      "##arg": 736,
      "##inal": 737,
      "Sci": 738,
      "studies": 739,
      "time": 740,
      "dep": 741,
      "##ability": 742,
      "As": 743,
      "results": 744,
      "respons": 745,
      "##ollow": 746,
      "##tical": 747,
      "indic": 748,
      "over": 749,
      "##18": 750,
      "different": 751,
      "prov": 752,
      "rep": 753,
      "28": 754,
      "el": 755,
      "appro": 756,
      "##ale": 757,
      "min": 758,
      "num": 759,
      "1016": 760,
      "Table": 761,
      "##ron": 762,
      "obs": 763,
      "ins": 764,
      "##ole": 765,
      "form": 766,
      "Ph": 767,
      "##ays": 768,
      "##ational": 769,
      "26": 770,
      "##urr": 771,
      "each": 772,
      "27": 773,
      "Con": 774,
      "up": 775,
      "develop": 776,
      "typ": 777,
      "##ential": 778,
      "##ption": 779,
      "29": 780,
      "##amm": 781,
      "##br": 782,
      "method": 783,
      "path": 784,
      "use": 785,
      "##ention": 786,
      "##ium": 787,
      "##inical": 788,
      "##ubl": 789,
      "meas": 790,
      "##ok": 791,
      "##ild": 792,
      "follow": 793,
      "##ha": 794,
      "but": 795,
      "##view": 796,
      "Cl": 797,
      "gr": 798,
      "##les": 799,
      "##atory": 800,
      "000": 801,
      "such": 802,
      "##22": 803,
      "##tit": 804,
      "under": 805,
      "sim": 806,
      "##uth": 807,
      "##ugh": 808,
      "##cri": 809,
      "es": 810,
      "##ined": 811,
      "##gen": 812,
      "##ions": 813,
      "##isk": 814,
      "##ric": 815,
      "##itive": 816,
      "cancer": 817,
      "##uman": 818,
      "##ited": 819,
      "##ct": 820,
      "during": 821,
      "##aph": 822,
      "##ement": 823,
      "conc": 824,
      "50": 825,
      "car": 826,
      "##50": 827,
      "one": 828,
      "observ": 829,
      "both": 830,
      "##inding": 831,
      "##ici": 832,
      "##90": 833,
      "##tribution": 834,
      "##oin": 835,
      "mon": 836,
      "into": 837,
      "repor": 838,
      "##ments": 839,
      "op": 840,
      "##ix": 841,
      "##eu": 842,
      "##yd": 843,
      "##old": 844,
      "##tics": 845,
      "chang": 846,
      "##owever": 847,
      "##art": 848,
      "gener": 849,
      "associated": 850,
      "##23": 851,
      "Figure": 852,
      "##rough": 853,
      "sel": 854,
      "identif": 855,
      "its": 856,
      "non": 857,
      "##uced": 858,
      "our": 859,
      "produc": 860,
      "year": 861,
      "34": 862,
      "cr": 863,
      "Ad": 864,
      "##se": 865,
      "##edic": 866,
      "##agn": 867,
      "##ft": 868,
      "##til": 869,
      "##ogen": 870,
      "##iversity": 871,
      "35": 872,
      "pol": 873,
      "dr": 874,
      "pot": 875,
      "37": 876,
      "##och": 877,
      "##ane": 878,
      "gl": 879,
      "##its": 880,
      "process": 881,
      "##24": 882,
      "disease": 883,
      "##ural": 884,
      "05": 885,
      "levels": 886,
      "##nal": 887,
      "##echn": 888,
      "##ex": 889,
      "##aining": 890,
      "##bi": 891,
      "36": 892,
      "##ities": 893,
      "Am": 894,
      "there": 895,
      "##86": 896,
      "##urther": 897,
      "risk": 898,
      "Li": 899,
      "##ann": 900,
      "##der": 901,
      "##ency": 902,
      "##ould": 903,
      "##ines": 904,
      "immun": 905,
      "##oph": 906,
      "2021": 907,
      "##ivid": 908,
      "number": 909,
      "mul": 910,
      "##26": 911,
      "##ax": 912,
      "Sh": 913,
      "found": 914,
      "end": 915,
      "##ort": 916,
      "tum": 917,
      "40": 918,
      "present": 919,
      "##rop": 920,
      "##own": 921,
      "specific": 922,
      "##ery": 923,
      "##olec": 924,
      "##ute": 925,
      "review": 926,
      "def": 927,
      "##oid": 928,
      "##ock": 929,
      "##27": 930,
      "rem": 931,
      "only": 932,
      "sequ": 933,
      "##ize": 934,
      "##esis": 935,
      "##25": 936,
      "##80": 937,
      "##93": 938,
      "##fore": 939,
      "##ages": 940,
      "through": 941,
      "For": 942,
      "2020": 943,
      "Ex": 944,
      "struct": 945,
      "2022": 946,
      "compared": 947,
      "had": 948,
      "##SA": 949,
      "##aracter": 950,
      "micro": 951,
      "term": 952,
      "##oh": 953,
      "##ulated": 954,
      "activity": 955,
      "research": 956,
      "effect": 957,
      "well": 958,
      "##tig": 959,
      "Im": 960,
      "##40": 961,
      "##ination": 962,
      "genes": 963,
      "##irst": 964,
      "col": 965,
      "##atis": 966,
      "sm": 967,
      "imp": 968,
      "Zh": 969,
      "##olution": 970,
      "human": 971,
      "Tr": 972,
      "##ental": 973,
      "##ible": 974,
      "##tively": 975,
      "clinical": 976,
      "##ital": 977,
      "inhib": 978,
      "##gh": 979,
      "##ently": 980,
      "hyp": 981,
      "##ved": 982,
      "Dis": 983,
      "experim": 984,
      "work": 985,
      "lik": 986,
      "##ples": 987,
      "21": 988,
      "##30": 989,
      "##sy": 990,
      "sug": 991,
      "##echan": 992,
      "##air": 993,
      "shown": 994,
      "fr": 995,
      "##28": 996,
      "##36": 997,
      "##97": 998,
      "##par": 999,
      "loc": 1000,
      "2023": 1001,
      "##lex": 1002,
      "##plement": 1003,
      "particip": 1004,
      "##cr": 1005,
      "pop": 1006,
      "95": 1007,
      "##ider": 1008,
      "##ogr": 1009,
      "##ividual": 1010,
      "##erap": 1011,
      "CD": 1012,
      "dem": 1013,
      "##led": 1014,
      "condition": 1015,
      "However": 1016,
      "Ar": 1017,
      "##arm": 1018,
      "addition": 1019,
      "auth": 1020,
      "##alu": 1021,
      "##over": 1022,
      "cal": 1023,
      "most": 1024,
      "higher": 1025,
      "reported": 1026,
      "observed": 1027,
      "##aterial": 1028,
      "##eter": 1029,
      "##gan": 1030,
      "assess": 1031,
      "fl": 1032,
      "##vious": 1033,
      "Health": 1034,
      "##rel": 1035,
      "conf": 1036,
      "qu": 1037,
      "effects": 1038,
      "fe": 1039,
      "##vir": 1040,
      "set": 1041,
      "##ics": 1042,
      "related": 1043,
      "##omes": 1044,
      "##ormal": 1045,
      "could": 1046,
      "##idence": 1047,
      "coll": 1048,
      "test": 1049,
      "##ough": 1050,
      "sugg": 1051,
      "when": 1052,
      "##eld": 1053,
      "predic": 1054,
      "##ross": 1055,
      "##ains": 1056,
      "three": 1057,
      "individual": 1058,
      "University": 1059,
      "##ins": 1060,
      "##ink": 1061,
      "##ek": 1062,
      "exam": 1063,
      "br": 1064,
      "sens": 1065,
      "##ication": 1066,
      "Sch": 1067,
      "##ilar": 1068,
      "so": 1069,
      "where": 1070,
      "acid": 1071,
      "##ective": 1072,
      "##ry": 1073,
      "##37": 1074,
      "##ade": 1075,
      "character": 1076,
      "##oun": 1077,
      "inform": 1078,
      "##RNA": 1079,
      "##ung": 1080,
      "Re": 1081,
      "##uction": 1082,
      "##vention": 1083,
      "##adi": 1084,
      "doi": 1085,
      "##mon": 1086,
      "determ": 1087,
      "ser": 1088,
      "##46": 1089,
      "repres": 1090,
      "grow": 1091,
      "##ise": 1092,
      "##ind": 1093,
      "sec": 1094,
      "kn": 1095,
      "##estig": 1096,
      "##ick": 1097,
      "2019": 1098,
      "##45": 1099,
      "38": 1100,
      "multi": 1101,
      "##ie": 1102,
      "within": 1103,
      "provid": 1104,
      "To": 1105,
      "##96": 1106,
      "##CA": 1107,
      "increased": 1108,
      "##ived": 1109,
      "prim": 1110,
      "##21": 1111,
      "##ucle": 1112,
      "av": 1113,
      "performed": 1114,
      "therap": 1115,
      "Cell": 1116,
      "##47": 1117,
      "mem": 1118,
      "##ept": 1119,
      "mechan": 1120,
      "##roph": 1121,
      "Wh": 1122,
      "##other": 1123,
      "factors": 1124,
      "respec": 1125,
      "##ice": 1126,
      "mice": 1127,
      "concentr": 1128,
      "CO": 1129,
      "mg": 1130,
      "##onstr": 1131,
      "##viron": 1132,
      "they": 1133,
      "mm": 1134,
      "syn": 1135,
      "first": 1136,
      "##95": 1137,
      "60": 1138,
      "response": 1139,
      "impro": 1140,
      "##ured": 1141,
      "##35": 1142,
      "##cc": 1143,
      "##arge": 1144,
      "significantly": 1145,
      "publ": 1146,
      "groups": 1147,
      "##ID": 1148,
      "including": 1149,
      "aff": 1150,
      "type": 1151,
      "2024": 1152,
      "##ores": 1153,
      "##usion": 1154,
      "##abol": 1155,
      "evalu": 1156,
      "obtain": 1157,
      "import": 1158,
      "tes": 1159,
      "##ire": 1160,
      "among": 1161,
      "##aj": 1162,
      "##oma": 1163,
      "showed": 1164,
      "##ateg": 1165,
      "##ause": 1166,
      "tiss": 1167,
      "##ust": 1168,
      "##ness": 1169,
      "mut": 1170,
      "tem": 1171,
      "##arget": 1172,
      "##ren": 1173,
      "##98": 1174,
      "prom": 1175,
      "45": 1176,
      "age": 1177,
      "potential": 1178,
      "All": 1179,
      "samples": 1180,
      "extr": 1181,
      "##osp": 1182,
      "##ey": 1183,
      "##aw": 1184,
      "vir": 1185,
      "##ily": 1186,
      "any": 1187,
      "##lamm": 1188,
      "##sych": 1189,
      "main": 1190,
      "previous": 1191,
      "##itor": 1192,
      "consider": 1193,
      "years": 1194,
      "##ardi": 1195,
      "##ograph": 1196,
      "Sup": 1197,
      "development": 1198,
      "tri": 1199,
      "ep": 1200,
      "role": 1201,
      "##ina": 1202,
      "values": 1203,
      "##ournal": 1204,
      "##yc": 1205,
      "It": 1206,
      "DNA": 1207,
      "##asc": 1208,
      "lim": 1209,
      "those": 1210,
      "##otyp": 1211,
      "##val": 1212,
      "##osph": 1213,
      "##pos": 1214,
      "mean": 1215,
      "requ": 1216,
      "##CR": 1217,
      "##ody": 1218,
      "These": 1219,
      "##uted": 1220,
      "line": 1221,
      "prob": 1222,
      "infection": 1223,
      "care": 1224,
      "##ticle": 1225,
      "##iqu": 1226,
      "invol": 1227,
      "##iter": 1228,
      "diagn": 1229,
      "##asm": 1230,
      "ed": 1231,
      "Br": 1232,
      "##endent": 1233,
      "32": 1234,
      "##ision": 1235,
      "##crib": 1236,
      "##ield": 1237,
      "value": 1238,
      "48": 1239,
      "##48": 1240,
      "molec": 1241,
      "##CT": 1242,
      "Gen": 1243,
      "##son": 1244,
      "long": 1245,
      "2018": 1246,
      "##ength": 1247,
      "total": 1248,
      "patient": 1249,
      "pe": 1250,
      "##hip": 1251,
      "due": 1252,
      "##70": 1253,
      "##ten": 1254,
      "01": 1255,
      "##ange": 1256,
      "will": 1257,
      "##71": 1258,
      "rate": 1259,
      "##tivity": 1260,
      "##ake": 1261,
      "##ah": 1262,
      "##tid": 1263,
      "##ove": 1264,
      "ox": 1265,
      "correl": 1266,
      "neu": 1267,
      "CA": 1268,
      "dire": 1269,
      "pathw": 1270,
      "class": 1271,
      "target": 1272,
      "##ning": 1273,
      "while": 1274,
      "Rev": 1275,
      "del": 1276,
      "2010": 1277,
      "cap": 1278,
      "he": 1279,
      "001": 1280,
      "On": 1281,
      "There": 1282,
      "##acy": 1283,
      "##af": 1284,
      "##60": 1285,
      "occ": 1286,
      "decre": 1287,
      "##iat": 1288,
      "##vers": 1289,
      "phys": 1290,
      "prot": 1291,
      "##ties": 1292,
      "2009": 1293,
      "):": 1294,
      "induced": 1295,
      "post": 1296,
      "2011": 1297,
      "##ogn": 1298,
      "information": 1299,
      "At": 1300,
      "Le": 1301,
      "gre": 1302,
      "mor": 1303,
      "need": 1304,
      "species": 1305,
      "signal": 1306,
      "##istr": 1307,
      "##havi": 1308,
      "2012": 1309,
      "coun": 1310,
      "child": 1311,
      "##ier": 1312,
      "investig": 1313,
      "##andard": 1314,
      "deg": 1315,
      "approach": 1316,
      "##77": 1317,
      "##ained": 1318,
      "##ites": 1319,
      "##erc": 1320,
      "some": 1321,
      "##ty": 1322,
      "positive": 1323,
      "##ification": 1324,
      "similar": 1325,
      "expl": 1326,
      "growth": 1327,
      "new": 1328,
      "metabol": 1329,
      "tumor": 1330,
      "##ae": 1331,
      "proteins": 1332,
      "interaction": 1333,
      "lower": 1334,
      "distribution": 1335,
      "cyt": 1336,
      "finding": 1337,
      "vis": 1338,
      "##ydro": 1339,
      "##ified": 1340,
      "respectively": 1341,
      "80": 1342,
      "outc": 1343,
      "En": 1344,
      "##uk": 1345,
      "increase": 1346,
      "techn": 1347,
      "population": 1348,
      "46": 1349,
      "orig": 1350,
      "Ap": 1351,
      "31": 1352,
      "##iver": 1353,
      "2008": 1354,
      "changes": 1355,
      "##ether": 1356,
      "complex": 1357,
      "##az": 1358,
      "##ailable": 1359,
      "further": 1360,
      "##34": 1361,
      "disc": 1362,
      "2017": 1363,
      "##reg": 1364,
      "bec": 1365,
      "##ety": 1366,
      "conditions": 1367,
      "##man": 1368,
      "##oy": 1369,
      "sugges": 1370,
      "authors": 1371,
      "Neu": 1372,
      "##requ": 1373,
      "inflamm": 1374,
      "lead": 1375,
      "mat": 1376,
      "demonstr": 1377,
      "##29": 1378,
      "mechanism": 1379,
      "##tis": 1380,
      "Pr": 1381,
      "Pl": 1382,
      "design": 1383,
      "##yz": 1384,
      "comb": 1385,
      "Sp": 1386,
      "##ull": 1387,
      "##39": 1388,
      "##55": 1389,
      "same": 1390,
      "conduc": 1391,
      "##tif": 1392,
      "calc": 1393,
      "describ": 1394,
      "##oint": 1395,
      "Research": 1396,
      "sample": 1397,
      "inj": 1398,
      "Int": 1399,
      "##oss": 1400,
      "##tric": 1401,
      "qual": 1402,
      "##omen": 1403,
      "39": 1404,
      "##etwork": 1405,
      "##ingle": 1406,
      "poss": 1407,
      "Ins": 1408,
      "##els": 1409,
      "##iew": 1410,
      "##ording": 1411,
      "##fl": 1412,
      "blood": 1413,
      "90": 1414,
      "##ults": 1415,
      "##onal": 1416,
      "70": 1417,
      "stress": 1418,
      "##face": 1419,
      "small": 1420,
      "##ful": 1421,
      "##ner": 1422,
      "##ms": 1423,
      "included": 1424,
      "##ically": 1425,
      "2013": 1426,
      "II": 1427,
      "who": 1428,
      "##SC": 1429,
      "factor": 1430,
      "##deg": 1431,
      "##AT": 1432,
      "mL": 1433,
      "##ves": 1434,
      "then": 1435,
      "##ife": 1436,
      "##44": 1437,
      "##arly": 1438,
      "Wang": 1439,
      "##cript": 1440,
      "bas": 1441,
      "##cop": 1442,
      "prog": 1443,
      "##ospital": 1444,
      "##mit": 1445,
      "obtained": 1446,
      "##icro": 1447,
      "express": 1448,
      "add": 1449,
      "drug": 1450,
      "neg": 1451,
      "abs": 1452,
      "##vironment": 1453,
      "estim": 1454,
      "resist": 1455,
      "following": 1456,
      "material": 1457,
      "recept": 1458,
      "##urrent": 1459,
      "##acc": 1460,
      "##uss": 1461,
      "param": 1462,
      "pers": 1463,
      "##65": 1464,
      "represent": 1465,
      "2007": 1466,
      "differences": 1467,
      "important": 1468,
      "bre": 1469,
      "equ": 1470,
      "ext": 1471,
      "Mar": 1472,
      "intr": 1473,
      "Data": 1474,
      "pat": 1475,
      "USA": 1476,
      "Chem": 1477,
      "normal": 1478,
      "##row": 1479,
      "standard": 1480,
      "##ern": 1481,
      "##omic": 1482,
      "##75": 1483,
      "enh": 1484,
      "mark": 1485,
      "##88": 1486,
      "proper": 1487,
      "behavi": 1488,
      "##cept": 1489,
      "models": 1490,
      "##yr": 1491,
      "identified": 1492,
      "participants": 1493,
      "dat": 1494,
      "influ": 1495,
      "ol": 1496,
      "##eh": 1497,
      "der": 1498,
      "CI": 1499,
      "Ind": 1500,
      "size": 1501,
      "cult": 1502,
      "##ool": 1503,
      "frequ": 1504,
      "access": 1505,
      "##iod": 1506,
      "55": 1507,
      "measure": 1508,
      "statis": 1509,
      "vers": 1510,
      "##uff": 1511,
      "article": 1512,
      "MA": 1513,
      "##med": 1514,
      "##ference": 1515,
      "Ab": 1516,
      "##ensity": 1517,
      "##ival": 1518,
      "sever": 1519,
      "##emic": 1520,
      "organ": 1521,
      "fib": 1522,
      "75": 1523,
      "cases": 1524,
      "##iven": 1525,
      "##33": 1526,
      "second": 1527,
      "2016": 1528,
      "app": 1529,
      "regul": 1530,
      "##aging": 1531,
      "sol": 1532,
      "##ert": 1533,
      "##GF": 1534,
      "44": 1535,
      "IL": 1536,
      "stat": 1537,
      "methods": 1538,
      "Co": 1539,
      "sym": 1540,
      "case": 1541,
      "2006": 1542,
      "No": 1543,
      "prof": 1544,
      "chem": 1545,
      "##uce": 1546,
      "47": 1547,
      "##atal": 1548,
      "##ished": 1549,
      "##plet": 1550,
      "##ator": 1551,
      "flu": 1552,
      "mM": 1553,
      "RNA": 1554,
      "##67": 1555,
      "##ward": 1556,
      "Di": 1557,
      "dom": 1558,
      "without": 1559,
      "initi": 1560,
      "single": 1561,
      "like": 1562,
      "##eters": 1563,
      "did": 1564,
      "nucle": 1565,
      "structure": 1566,
      "vol": 1567,
      "Gr": 1568,
      "should": 1569,
      "##CC": 1570,
      "tissue": 1571,
      "##duction": 1572,
      "temper": 1573,
      "##ison": 1574,
      "##AR": 1575,
      "##ense": 1576,
      "##otic": 1577,
      "##cription": 1578,
      "Or": 1579,
      "Nat": 1580,
      "##imal": 1581,
      "##plications": 1582,
      "##49": 1583,
      "about": 1584,
      "expos": 1585,
      "43": 1586,
      "##ior": 1587,
      "Dep": 1588,
      "##ced": 1589,
      "BM": 1590,
      "##ai": 1591,
      "03": 1592,
      "sl": 1593,
      "month": 1594,
      "##he": 1595,
      "network": 1596,
      "##ets": 1597,
      "##ank": 1598,
      "stim": 1599,
      "would": 1600,
      "fam": 1601,
      "2005": 1602,
      "##land": 1603,
      "treated": 1604,
      "##ptom": 1605,
      "Pre": 1606,
      "antib": 1607,
      "##ationship": 1608,
      "##oles": 1609,
      "##resp": 1610,
      "65": 1611,
      "findings": 1612,
      "reve": 1613,
      "##85": 1614,
      "##ension": 1615,
      "water": 1616,
      "##ats": 1617,
      "##andom": 1618,
      "subs": 1619,
      "Inter": 1620,
      "##enter": 1621,
      "##**": 1622,
      "ele": 1623,
      "lab": 1624,
      "again": 1625,
      "Rep": 1626,
      "##ables": 1627,
      "commun": 1628,
      "##verage": 1629,
      "##irc": 1630,
      "2015": 1631,
      "El": 1632,
      "56": 1633,
      "##ocial": 1634,
      "analyz": 1635,
      "Me": 1636,
      "##round": 1637,
      "##ission": 1638,
      "Zhang": 1639,
      "##tions": 1640,
      "##ately": 1641,
      "Method": 1642,
      "hist": 1643,
      "Cancer": 1644,
      "you": 1645,
      "brain": 1646,
      "bacter": 1647,
      "contr": 1648,
      "##ascular": 1649,
      "period": 1650,
      "42": 1651,
      "##tegr": 1652,
      "available": 1653,
      "phen": 1654,
      "##eric": 1655,
      "##itro": 1656,
      "characteris": 1657,
      "binding": 1658,
      "##of": 1659,
      "##her": 1660,
      "##rr": 1661,
      "if": 1662,
      "caus": 1663,
      "##urs": 1664,
      "days": 1665,
      "##icient": 1666,
      "##ysis": 1667,
      "Biol": 1668,
      "##AS": 1669,
      "range": 1670,
      "##87": 1671,
      "mal": 1672,
      "aut": 1673,
      "04": 1674,
      "##cent": 1675,
      "subj": 1676,
      "pattern": 1677,
      "##equ": 1678,
      "##99": 1679,
      "##eration": 1680,
      "06": 1681,
      "##ters": 1682,
      "described": 1683,
      "##min": 1684,
      "##tributed": 1685,
      "##ired": 1686,
      "intervention": 1687,
      "De": 1688,
      "quality": 1689,
      "##ergy": 1690,
      "phosph": 1691,
      "##ao": 1692,
      "##ening": 1693,
      "Par": 1694,
      "week": 1695,
      "region": 1696,
      "##iting": 1697,
      "2004": 1698,
      "67": 1699,
      "adv": 1700,
      "day": 1701,
      "HI": 1702,
      "therapy": 1703,
      "Ass": 1704,
      "ret": 1705,
      "##oad": 1706,
      "##uration": 1707,
      "less": 1708,
      "##though": 1709,
      "2014": 1710,
      "multiple": 1711,
      "##ulations": 1712,
      "primary": 1713,
      "relationship": 1714,
      "performance": 1715,
      "##ules": 1716,
      "gu": 1717,
      "Phys": 1718,
      "##artment": 1719,
      "provided": 1720,
      "cle": 1721,
      "##eck": 1722,
      "rati": 1723,
      "41": 1724,
      "##line": 1725,
      "surface": 1726,
      "57": 1727,
      "##ustr": 1728,
      "##hi": 1729,
      "##ving": 1730,
      "MD": 1731,
      "common": 1732,
      "att": 1733,
      "##ces": 1734,
      "##ethyl": 1735,
      "surg": 1736,
      "02": 1737,
      "##AC": 1738,
      "##usc": 1739,
      "Sur": 1740,
      "##app": 1741,
      "medi": 1742,
      "PD": 1743,
      "##plication": 1744,
      "Str": 1745,
      "49": 1746,
      "local": 1747,
      "##ised": 1748,
      "fil": 1749,
      "isol": 1750,
      "nan": 1751,
      "##utr": 1752,
      "SD": 1753,
      "Stud": 1754,
      "1038": 1755,
      "Bl": 1756,
      "Further": 1757,
      "##omet": 1758,
      "negative": 1759,
      "##000": 1760,
      "Gu": 1761,
      "##RI": 1762,
      "##ajor": 1763,
      "large": 1764,
      "children": 1765,
      "presence": 1766,
      "quan": 1767,
      "##owled": 1768,
      "hydro": 1769,
      "##ouse": 1770,
      "random": 1771,
      "##Ps": 1772,
      "##etes": 1773,
      "##erst": 1774,
      "fac": 1775,
      "activation": 1776,
      "##plementary": 1777,
      "original": 1778,
      "synth": 1779,
      "##amp": 1780,
      "cardi": 1781,
      "##icine": 1782,
      "##ince": 1783,
      "##atures": 1784,
      "58": 1785,
      "##agement": 1786,
      "##anced": 1787,
      "##au": 1788,
      "bet": 1789,
      "##ances": 1790,
      "He": 1791,
      "part": 1792,
      "direct": 1793,
      "against": 1794,
      "##tex": 1795,
      "support": 1796,
      "link": 1797,
      "being": 1798,
      "96": 1799,
      "four": 1800,
      "exc": 1801,
      "Sc": 1802,
      "surv": 1803,
      "neur": 1804,
      "sk": 1805,
      "across": 1806,
      "fem": 1807,
      "66": 1808,
      "environment": 1809,
      "PL": 1810,
      "Fr": 1811,
      "##ynam": 1812,
      "##ycl": 1813,
      "temperature": 1814,
      "conducted": 1815,
      "prac": 1816,
      "54": 1817,
      "##ino": 1818,
      "functional": 1819,
      "##ource": 1820,
      "##lyc": 1821,
      "reveal": 1822,
      "concentration": 1823,
      "various": 1824,
      "women": 1825,
      "Anal": 1826,
      "##ower": 1827,
      "85": 1828,
      "##entral": 1829,
      "improve": 1830,
      "##onic": 1831,
      "Micro": 1832,
      "phase": 1833,
      "53": 1834,
      "rece": 1835,
      "##zym": 1836,
      "##ytes": 1837,
      "impact": 1838,
      "change": 1839,
      "##ativ": 1840,
      "07": 1841,
      "evidence": 1842,
      "##ices": 1843,
      "##eases": 1844,
      "via": 1845,
      "##ll": 1846,
      "difference": 1847,
      "##ochem": 1848,
      "##ode": 1849,
      "##EM": 1850,
      "Immun": 1851,
      "##atin": 1852,
      "measured": 1853,
      "dev": 1854,
      "experiments": 1855,
      "Trans": 1856,
      "sch": 1857,
      "##abl": 1858,
      "major": 1859,
      "Instit": 1860,
      "lip": 1861,
      "##ask": 1862,
      "resistance": 1863,
      "before": 1864,
      "reduced": 1865,
      "MS": 1866,
      "mo": 1867,
      "analyses": 1868,
      "China": 1869,
      "my": 1870,
      "##asing": 1871,
      "strateg": 1872,
      "diff": 1873,
      "early": 1874,
      "virus": 1875,
      "section": 1876,
      "##89": 1877,
      "receptor": 1878,
      "Inf": 1879,
      "solution": 1880,
      "sus": 1881,
      "pur": 1882,
      "individuals": 1883,
      "Ev": 1884,
      "Ag": 1885,
      "bar": 1886,
      "Car": 1887,
      "symptom": 1888,
      "mi": 1889,
      "97": 1890,
      "##AP": 1891,
      "corresp": 1892,
      "terms": 1893,
      "current": 1894,
      "Not": 1895,
      "parameters": 1896,
      "##cin": 1897,
      "sep": 1898,
      "Comp": 1899,
      "immune": 1900,
      "considered": 1901,
      "read": 1902,
      "##43": 1903,
      "Clin": 1904,
      "membr": 1905,
      "Eff": 1906,
      "##ogene": 1907,
      "##OS": 1908,
      "indep": 1909,
      "experi": 1910,
      "##ton": 1911,
      "production": 1912,
      "compon": 1913,
      "medium": 1914,
      "##ectr": 1915,
      "##66": 1916,
      "radi": 1917,
      "because": 1918,
      "##uit": 1919,
      "Science": 1920,
      "area": 1921,
      ");": 1922,
      ".-": 1923,
      "99": 1924,
      "hel": 1925,
      "##ta": 1926,
      "several": 1927,
      "integr": 1928,
      "##tered": 1929,
      "Cor": 1930,
      "CT": 1931,
      "##ensive": 1932,
      "##BS": 1933,
      "expressed": 1934,
      "life": 1935,
      "foc": 1936,
      "adj": 1937,
      "##iol": 1938,
      "them": 1939,
      "clus": 1940,
      "Department": 1941,
      "outcomes": 1942,
      "pathway": 1943,
      "valid": 1944,
      "2003": 1945,
      "bel": 1946,
      "score": 1947,
      "59": 1948,
      "Chen": 1949,
      "52": 1950,
      "elect": 1951,
      "vs": 1952,
      "PM": 1953,
      "##AG": 1954,
      "differenti": 1955,
      "suppor": 1956,
      "##rin": 1957,
      "##riting": 1958,
      "77": 1959,
      "##tically": 1960,
      "particular": 1961,
      "sequence": 1962,
      "Liu": 1963,
      "##gram": 1964,
      "accur": 1965,
      "allow": 1966,
      "Addition": 1967,
      "enc": 1968,
      "##io": 1969,
      "##ER": 1970,
      "Cre": 1971,
      "##abetes": 1972,
      "1007": 1973,
      "ques": 1974,
      "according": 1975,
      "lear": 1976,
      "##ended": 1977,
      "complet": 1978,
      "##omy": 1979,
      "64": 1980,
      "molecular": 1981,
      "##encing": 1982,
      "reaction": 1983,
      "indicated": 1984,
      "51": 1985,
      "manus": 1986,
      "journal": 1987,
      "down": 1988,
      "##32": 1989,
      "Cr": 1990,
      "characteristics": 1991,
      "underst": 1992,
      "##mission": 1993,
      "%,": 1994,
      "##ings": 1995,
      "##otherap": 1996,
      "##aff": 1997,
      "##bers": 1998,
      "##itation": 1999,
      "compos": 2000,
      "result": 2001,
      "involved": 2002,
      "##ule": 2003,
      "possible": 2004,
      "##ury": 2005,
      "body": 2006,
      "signaling": 2007,
      "Hu": 2008,
      "dependent": 2009,
      "degC": 2010,
      "##PS": 2011,
      "field": 2012,
      "dist": 2013,
      "confir": 2014,
      "AT": 2015,
      "est": 2016,
      "##ither": 2017,
      "Eng": 2018,
      "plasm": 2019,
      "Rec": 2020,
      "ml": 2021,
      "chrom": 2022,
      "68": 2023,
      "69": 2024,
      "##ymph": 2025,
      "demonstrated": 2026,
      "constr": 2027,
      "presented": 2028,
      "Per": 2029,
      "resid": 2030,
      "76": 2031,
      "strong": 2032,
      "dim": 2033,
      "Mol": 2034,
      "recom": 2035,
      "ST": 2036,
      "disord": 2037,
      "manuscript": 2038,
      "general": 2039,
      "ratio": 2040,
      "free": 2041,
      "##emia": 2042,
      "circ": 2043,
      "##ke": 2044,
      "##ronic": 2045,
      "##ots": 2046,
      "average": 2047,
      "provide": 2048,
      "##eed": 2049,
      "order": 2050,
      "AD": 2051,
      "##eptid": 2052,
      "##red": 2053,
      "survival": 2054,
      "08": 2055,
      "##Cs": 2056,
      "98": 2057,
      "Cons": 2058,
      "##ma": 2059,
      "Is": 2060,
      "previously": 2061,
      "Gl": 2062,
      "##ez": 2063,
      "max": 2064,
      "Psych": 2065,
      "72": 2066,
      "loss": 2067,
      "##ople": 2068,
      "weight": 2069,
      "##plied": 2070,
      "##ored": 2071,
      "carb": 2072,
      "Sim": 2073,
      "months": 2074,
      "Met": 2075,
      "##atively": 2076,
      "##ount": 2077,
      "Pol": 2078,
      "PCR": 2079,
      "##ware": 2080,
      "properties": 2081,
      "extrac": 2082,
      "##ellular": 2083,
      "Intern": 2084,
      "vacc": 2085,
      "sev": 2086,
      "known": 2087,
      "##eline": 2088,
      "##otype": 2089,
      "content": 2090,
      "polym": 2091,
      "##arr": 2092,
      "##aps": 2093,
      "##ides": 2094,
      "many": 2095,
      "containing": 2096,
      "analyzed": 2097,
      "diagnos": 2098,
      "Publ": 2099,
      "##ST": 2100,
      "##42": 2101,
      "After": 2102,
      "prepar": 2103,
      "mix": 2104,
      "Supplementary": 2105,
      "detection": 2106,
      "serv": 2107,
      "optim": 2108,
      "2000": 2109,
      "##ume": 2110,
      "##ols": 2111,
      "inflammatory": 2112,
      "determined": 2113,
      "Journal": 2114,
      "##roup": 2115,
      "repro": 2116,
      "More": 2117,
      "##53": 2118,
      "prol": 2119,
      "110": 2120,
      "Mod": 2121,
      "##oor": 2122,
      "social": 2123,
      "diagnosis": 2124,
      "##56": 2125,
      "##57": 2126,
      "##AM": 2127,
      "63": 2128,
      "AM": 2129,
      "status": 2130,
      "hem": 2131,
      "##icity": 2132,
      "##abil": 2133,
      "responses": 2134,
      "nec": 2135,
      "86": 2136,
      "##ibility": 2137,
      "family": 2138,
      "##any": 2139,
      "##imum": 2140,
      "consist": 2141,
      "state": 2142,
      "##lor": 2143,
      "genetic": 2144,
      "exhib": 2145,
      "additional": 2146,
      "HIV": 2147,
      "Therefore": 2148,
      "transcription": 2149,
      "compound": 2150,
      "##ient": 2151,
      "##ources": 2152,
      "food": 2153,
      "##onding": 2154,
      "##lation": 2155,
      "calculated": 2156,
      "sex": 2157,
      "admin": 2158,
      "press": 2159,
      "##ids": 2160,
      "##ject": 2161,
      "nov": 2162,
      "eth": 2163,
      "cur": 2164,
      "Reg": 2165,
      "##iving": 2166,
      "focus": 2167,
      "##etic": 2168,
      "mac": 2169,
      "##cence": 2170,
      "derived": 2171,
      "##ld": 2172,
      "National": 2173,
      "association": 2174,
      "behavior": 2175,
      "prec": 2176,
      "##elial": 2177,
      "87": 2178,
      "##opl": 2179,
      "##ands": 2180,
      "formation": 2181,
      "position": 2182,
      "78": 2183,
      "mass": 2184,
      "##VID": 2185,
      "2002": 2186,
      "Dr": 2187,
      "mit": 2188,
      "].": 2189,
      "reduction": 2190,
      "ro": 2191,
      "##iciency": 2192,
      "site": 2193,
      "Op": 2194,
      "##erative": 2195,
      "self": 2196,
      "mechanisms": 2197,
      "ang": 2198,
      "length": 2199,
      "Results": 2200,
      "##eart": 2201,
      "energy": 2202,
      "regions": 2203,
      "##aking": 2204,
      "cop": 2205,
      "##ique": 2206,
      "62": 2207,
      "inhibit": 2208,
      "##more": 2209,
      "correlation": 2210,
      "Inv": 2211,
      "##rior": 2212,
      "##roscop": 2213,
      "##uture": 2214,
      "enzym": 2215,
      "scre": 2216,
      "contrib": 2217,
      "##ploy": 2218,
      "util": 2219,
      "exposure": 2220,
      "whether": 2221,
      "##itivity": 2222,
      "##umm": 2223,
      "##ually": 2224,
      "##anding": 2225,
      "identify": 2226,
      "##ulin": 2227,
      "contin": 2228,
      "revealed": 2229,
      "##otherapy": 2230,
      "Medicine": 2231,
      "##izing": 2232,
      "##ried": 2233,
      "CR": 2234,
      "regard": 2235,
      "point": 2236,
      "##ler": 2237,
      "Our": 2238,
      "regulation": 2239,
      "os": 2240,
      "##ret": 2241,
      "##armac": 2242,
      "might": 2243,
      "##ash": 2244,
      "##degC": 2245,
      "rates": 2246,
      "how": 2247,
      "Medical": 2248,
      "##ales": 2249,
      "Col": 2250,
      "COVID": 2251,
      "cross": 2252,
      "##oz": 2253,
      "##ably": 2254,
      "gluc": 2255,
      "##ibr": 2256,
      "##pective": 2257,
      "shows": 2258,
      "##ists": 2259,
      "incub": 2260,
      "Mc": 2261,
      "death": 2262,
      "very": 2263,
      "##amin": 2264,
      "coh": 2265,
      "1371": 2266,
      "##AD": 2267,
      "##xim": 2268,
      "off": 2269,
      "##ogenesis": 2270,
      "diseases": 2271,
      "##opt": 2272,
      "mouse": 2273,
      "chall": 2274,
      "neuro": 2275,
      "likely": 2276,
      "##enz": 2277,
      "##formation": 2278,
      "09": 2279,
      "pap": 2280,
      "images": 2281,
      "above": 2282,
      "##tice": 2283,
      "##sk": 2284,
      "CC": 2285,
      "##emb": 2286,
      "lung": 2287,
      "types": 2288,
      "scale": 2289,
      "proced": 2290,
      "genome": 2291,
      "##ont": 2292,
      "variables": 2293,
      "##PI": 2294,
      "stage": 2295,
      "New": 2296,
      "Comm": 2297,
      "either": 2298,
      "##ani": 2299,
      "oxid": 2300,
      "##asis": 2301,
      "musc": 2302,
      "##tality": 2303,
      "lymph": 2304,
      "relative": 2305,
      "breast": 2306,
      "73": 2307,
      "##ayer": 2308,
      "alg": 2309,
      "##76": 2310,
      "61": 2311,
      "step": 2312,
      "concentrations": 2313,
      "biom": 2314,
      "##icense": 2315,
      "Methods": 2316,
      "pain": 2317,
      "AC": 2318,
      "datas": 2319,
      "##ES": 2320,
      "##rich": 2321,
      "left": 2322,
      "open": 2323,
      "##owledge": 2324,
      "##valence": 2325,
      "88": 2326,
      "example": 2327,
      "Furthermore": 2328,
      "##73": 2329,
      "##orld": 2330,
      "##urn": 2331,
      "##ators": 2332,
      "##ours": 2333,
      "made": 2334,
      "##inc": 2335,
      "79": 2336,
      "detected": 2337,
      "soft": 2338,
      "suc": 2339,
      "##put": 2340,
      "medical": 2341,
      "93": 2342,
      "##berg": 2343,
      "symptoms": 2344,
      "sequences": 2345,
      "CH": 2346,
      "##na": 2347,
      "frequency": 2348,
      "PC": 2349,
      "Sm": 2350,
      ".)": 2351,
      "##58": 2352,
      "liver": 2353,
      "training": 2354,
      "sites": 2355,
      "oper": 2356,
      "membrane": 2357,
      "separ": 2358,
      "learning": 2359,
      "systems": 2360,
      "independent": 2361,
      "##sequ": 2362,
      "management": 2363,
      "OR": 2364,
      "##ector": 2365,
      "indicate": 2366,
      "2001": 2367,
      "##ones": 2368,
      "##ird": 2369,
      "Mor": 2370,
      "given": 2371,
      "##istry": 2372,
      "##enef": 2373,
      "collected": 2374,
      "##ackage": 2375,
      "people": 2376,
      "physical": 2377,
      "phot": 2378,
      "cm": 2379,
      "experimental": 2380,
      "dose": 2381,
      "cre": 2382,
      "ec": 2383,
      "DM": 2384,
      "ill": 2385,
      "##itis": 2386,
      "see": 2387,
      "hospital": 2388,
      "Be": 2389,
      "visual": 2390,
      "flow": 2391,
      "Americ": 2392,
      "##obal": 2393,
      "##pression": 2394,
      "##astic": 2395,
      "top": 2396,
      "hom": 2397,
      "larg": 2398,
      "followed": 2399,
      "Techn": 2400,
      "##ET": 2401,
      "ver": 2402,
      "##ography": 2403,
      "sal": 2404,
      "serum": 2405,
      "74": 2406,
      "##ude": 2407,
      "Creative": 2408,
      "mediated": 2409,
      "Commons": 2410,
      "times": 2411,
      "adap": 2412,
      "IC": 2413,
      "features": 2414,
      "trial": 2415,
      "public": 2416,
      "##oints": 2417,
      "light": 2418,
      "##tinal": 2419,
      "##GG": 2420,
      "psych": 2421,
      "appear": 2422,
      "89": 2423,
      "surve": 2424,
      "comparison": 2425,
      "##cep": 2426,
      "##ancy": 2427,
      "##ocytes": 2428,
      "Gene": 2429,
      "##resh": 2430,
      "electr": 2431,
      "##ave": 2432,
      "##kn": 2433,
      "##odies": 2434,
      "ref": 2435,
      "##ett": 2436,
      "even": 2437,
      "refl": 2438,
      "interactions": 2439,
      "94": 2440,
      "##istic": 2441,
      "effective": 2442,
      "##ends": 2443,
      "ul": 2444,
      "Des": 2445,
      "##ument": 2446,
      "AN": 2447,
      "doc": 2448,
      "chronic": 2449,
      "##orith": 2450,
      "One": 2451,
      "dynam": 2452,
      "required": 2453,
      "##ecting": 2454,
      "Ne": 2455,
      "density": 2456,
      "resulting": 2457,
      "record": 2458,
      "##eness": 2459,
      "Review": 2460,
      "##ising": 2461,
      "block": 2462,
      "index": 2463,
      "mortality": 2464,
      "prior": 2465,
      "120": 2466,
      "##posed": 2467,
      "benef": 2468,
      "Val": 2469,
      "selected": 2470,
      "83": 2471,
      "assay": 2472,
      "71": 2473,
      "##ture": 2474,
      "defined": 2475,
      "least": 2476,
      "lines": 2477,
      "Qu": 2478,
      "pathways": 2479,
      "84": 2480,
      "establ": 2481,
      "contrast": 2482,
      "##utes": 2483,
      "assessment": 2484,
      "decreased": 2485,
      "expec": 2486,
      "bone": 2487,
      "##igr": 2488,
      "##ano": 2489,
      "##ogenic": 2490,
      "right": 2491,
      "increasing": 2492,
      "active": 2493,
      "spectr": 2494,
      "liter": 2495,
      "##ney": 2496,
      "dra": 2497,
      "##gn": 2498,
      "overall": 2499,
      "developed": 2500,
      "heter": 2501,
      "##aneous": 2502,
      "help": 2503,
      "##inant": 2504,
      "Acad": 2505,
      "proble": 2506,
      "hand": 2507,
      "plant": 2508,
      "diet": 2509,
      "Inc": 2510,
      "PA": 2511,
      "fund": 2512,
      "ann": 2513,
      "Bar": 2514,
      "Ed": 2515,
      "source": 2516,
      "guid": 2517,
      "here": 2518,
      "##press": 2519,
      "##active": 2520,
      "does": 2521,
      "criter": 2522,
      "prev": 2523,
      "Ep": 2524,
      "ov": 2525,
      "categ": 2526,
      "1002": 2527,
      "Sub": 2528,
      "##icult": 2529,
      "nm": 2530,
      "electro": 2531,
      "##ili": 2532,
      "Sw": 2533,
      "##78": 2534,
      "Pati": 2535,
      "##ights": 2536,
      "novel": 2537,
      "SN": 2538,
      "S1": 2539,
      "##ially": 2540,
      "promo": 2541,
      "82": 2542,
      "##rome": 2543,
      "real": 2544,
      "cri": 2545,
      "tub": 2546,
      "displ": 2547,
      "better": 2548,
      "##rial": 2549,
      "##ocy": 2550,
      "##ochond": 2551,
      "##ographic": 2552,
      "back": 2553,
      "occurr": 2554,
      "##grad": 2555,
      "##verse": 2556,
      "dam": 2557,
      "te": 2558,
      "short": 2559,
      "##ognitive": 2560,
      "##oratory": 2561,
      "##imals": 2562,
      "##istration": 2563,
      "3390": 2564,
      "##orb": 2565,
      "##enced": 2566,
      "##ynd": 2567,
      "##clusion": 2568,
      "key": 2569,
      "percent": 2570,
      "##eutic": 2571,
      "educ": 2572,
      "pair": 2573,
      "program": 2574,
      "detail": 2575,
      "biological": 2576,
      "lack": 2577,
      "protoc": 2578,
      "ER": 2579,
      "Es": 2580,
      "Although": 2581,
      "Institute": 2582,
      "(%": 2583,
      "mRNA": 2584,
      "ax": 2585,
      "##ame": 2586,
      "##ferences": 2587,
      "employ": 2588,
      "pH": 2589,
      "author": 2590,
      "Analysis": 2591,
      "countr": 2592,
      "##omp": 2593,
      "Se": 2594,
      "fail": 2595,
      "greater": 2596,
      "Clinical": 2597,
      "dys": 2598,
      "##68": 2599,
      "domain": 2600,
      "highly": 2601,
      "AL": 2602,
      "##ferred": 2603,
      "kg": 2604,
      "##ring": 2605,
      "corresponding": 2606,
      "version": 2607,
      "pressure": 2608,
      "##ivo": 2609,
      "hep": 2610,
      "PR": 2611,
      "AP": 2612,
      "algorith": 2613,
      "stimul": 2614,
      "peptid": 2615,
      "diabetes": 2616,
      "Spec": 2617,
      "92": 2618,
      "Eu": 2619,
      "##ertain": 2620,
      "##tor": 2621,
      "log": 2622,
      "##till": 2623,
      "Fron": 2624,
      "##oS": 2625,
      "err": 2626,
      "##uffer": 2627,
      "##eral": 2628,
      "##rix": 2629,
      "vitro": 2630,
      "##eff": 2631,
      "Hospital": 2632,
      "sw": 2633,
      "##fact": 2634,
      "corre": 2635,
      "##orn": 2636,
      "##SP": 2637,
      "file": 2638,
      "acute": 2639,
      "imaging": 2640,
      "injury": 2641,
      "influence": 2642,
      "AR": 2643,
      "##ling": 2644,
      "##NF": 2645,
      "apopt": 2646,
      "surgery": 2647,
      "acqu": 2648,
      "areas": 2649,
      "MC": 2650,
      ".;": 2651,
      "relev": 2652,
      "perm": 2653,
      "muscle": 2654,
      "report": 2655,
      "##opath": 2656,
      "fat": 2657,
      "SM": 2658,
      "##enting": 2659,
      "promot": 2660,
      "prolif": 2661,
      "1111": 2662,
      "##emi": 2663,
      "Writing": 2664,
      "hypoth": 2665,
      "include": 2666,
      "scores": 2667,
      "##59": 2668,
      "applied": 2669,
      "##74": 2670,
      "ability": 2671,
      "1186": 2672,
      "five": 2673,
      "##odes": 2674,
      "##read": 2675,
      "##eting": 2676,
      "81": 2677,
      "pul": 2678,
      "thus": 2679,
      "##Cl": 2680,
      "Em": 2681,
      "##bial": 2682,
      "interest": 2683,
      "initial": 2684,
      "often": 2685,
      "##NE": 2686,
      "repe": 2687,
      "***": 2688,
      "##etal": 2689,
      "MM": 2690,
      "Moreover": 2691,
      "facil": 2692,
      "##O2": 2693,
      "peak": 2694,
      "##clus": 2695,
      "strain": 2696,
      "##ateral": 2697,
      "##plant": 2698,
      "Av": 2699,
      "methyl": 2700,
      "Sciences": 2701,
      "cycl": 2702,
      "limited": 2703,
      "unc": 2704,
      "Man": 2705,
      "Cont": 2706,
      "kin": 2707,
      "##ef": 2708,
      "##tib": 2709,
      "culture": 2710,
      "##ycle": 2711,
      "##roc": 2712,
      "##ason": 2713,
      "Thus": 2714,
      "antibody": 2715,
      "weeks": 2716,
      "patterns": 2717,
      "Fe": 2718,
      "conn": 2719,
      "future": 2720,
      "load": 2721,
      "Compar": 2722,
      "##arc": 2723,
      "##ipp": 2724,
      "final": 2725,
      "suggest": 2726,
      "processes": 2727,
      "pone": 2728,
      "Bio": 2729,
      "literature": 2730,
      "tox": 2731,
      "evaluation": 2732,
      "Ca": 2733,
      "(%)": 2734,
      "##ams": 2735,
      "##ulf": 2736,
      "cellular": 2737,
      "##ests": 2738,
      "volume": 2739,
      "question": 2740,
      "##bo": 2741,
      "##ij": 2742,
      "Fin": 2743,
      "##ather": 2744,
      "prevalence": 2745,
      "determine": 2746,
      "##ley": 2747,
      "assessed": 2748,
      "##BP": 2749,
      "metast": 2750,
      "##icacy": 2751,
      "view": 2752,
      "continu": 2753,
      "##41": 2754,
      "vivo": 2755,
      "tra": 2756,
      "##cinoma": 2757,
      "Material": 2758,
      "recent": 2759,
      "systematic": 2760,
      "High": 2761,
      "propor": 2762,
      "##orth": 2763,
      "0000": 2764,
      "##79": 2765,
      "ampl": 2766,
      "Min": 2767,
      "distributed": 2768,
      "91": 2769,
      "##83": 2770,
      "##TT": 2771,
      "##ean": 2772,
      "cohort": 2773,
      "recogn": 2774,
      "knowledge": 2775,
      "ess": 2776,
      "statistical": 2777,
      "##pri": 2778,
      "success": 2779,
      "necess": 2780,
      "##ticles": 2781,
      "sensitivity": 2782,
      "##0000": 2783,
      ")-": 2784,
      "##63": 2785,
      "regression": 2786,
      "##..": 2787,
      "AS": 2788,
      "tests": 2789,
      "subst": 2790,
      "power": 2791,
      "Yang": 2792,
      "populations": 2793,
      "tested": 2794,
      "CS": 2795,
      "CM": 2796,
      "effec": 2797,
      "severe": 2798,
      "##OR": 2799,
      "SC": 2800,
      "instr": 2801,
      "##ape": 2802,
      "contex": 2803,
      "##uble": 2804,
      "##irus": 2805,
      "consum": 2806,
      "remov": 2807,
      "##olecular": 2808,
      "##iatric": 2809,
      "selection": 2810,
      "evaluated": 2811,
      "##outh": 2812,
      "##lying": 2813,
      "##oxid": 2814,
      "sci": 2815,
      "task": 2816,
      "approxim": 2817,
      "Study": 2818,
      "##mitted": 2819,
      "subjects": 2820,
      "monitor": 2821,
      "##ining": 2822,
      "decrease": 2823,
      "##ussion": 2824,
      "Auth": 2825,
      "Germ": 2826,
      "morph": 2827,
      "image": 2828,
      "##tial": 2829,
      "editing": 2830,
      "aim": 2831,
      "Bo": 2832,
      "##ott": 2833,
      "United": 2834,
      "community": 2835,
      "Kim": 2836,
      "however": 2837,
      "criteria": 2838,
      "reference": 2839,
      "##den": 2840,
      "les": 2841,
      "animals": 2842,
      "products": 2843,
      "decl": 2844,
      "Additionally": 2845,
      "##ulate": 2846,
      "##EE": 2847,
      "##69": 2848,
      "##IC": 2849,
      "MR": 2850,
      "##ygen": 2851,
      "##overy": 2852,
      "strains": 2853,
      "nat": 2854,
      "controls": 2855,
      "##ella": 2856,
      "##ared": 2857,
      "software": 2858,
      "Europ": 2859,
      "play": 2860,
      "inhibition": 2861,
      "tissues": 2862,
      "Statis": 2863,
      "cluster": 2864,
      "##ems": 2865,
      "##ars": 2866,
      "outcome": 2867,
      "inflammation": 2868,
      "glyc": 2869,
      "##orph": 2870,
      "maintain": 2871,
      "##oding": 2872,
      "datab": 2873,
      "##yg": 2874,
      "##aken": 2875,
      "System": 2876,
      "eng": 2877,
      "##eding": 2878,
      "##64": 2879,
      "synd": 2880,
      "cause": 2881,
      "fer": 2882,
      "End": 2883,
      "reduc": 2884,
      "##NT": 2885,
      "Surg": 2886,
      "functions": 2887,
      "neurons": 2888,
      "##ada": 2889,
      "fin": 2890,
      "##roduction": 2891,
      "##SS": 2892,
      "testing": 2893,
      "strength": 2894,
      "And": 2895,
      "##ception": 2896,
      "mitochond": 2897,
      "iss": 2898,
      "##FP": 2899,
      "paper": 2900,
      "Disc": 2901,
      "received": 2902,
      "male": 2903,
      "##olic": 2904,
      "fluores": 2905,
      "Lee": 2906,
      "subsequ": 2907,
      "Microbi": 2908,
      "International": 2909,
      "plac": 2910,
      "##31": 2911,
      "combination": 2912,
      "generated": 2913,
      "consistent": 2914,
      "diss": 2915,
      "lig": 2916,
      "##uz": 2917,
      "EC": 2918,
      "materials": 2919,
      "Nature": 2920,
      "Mul": 2921,
      "##PA": 2922,
      "still": 2923,
      "Na": 2924,
      "plasma": 2925,
      "##terior": 2926,
      "Lab": 2927,
      "miR": 2928,
      "##84": 2929,
      "adults": 2930,
      "Eth": 2931,
      "1093": 2932,
      "summ": 2933,
      "glucose": 2934,
      "##apid": 2935,
      "##bl": 2936,
      "structures": 2937,
      "##care": 2938,
      "109": 2939,
      "##isher": 2940,
      "along": 2941,
      "collection": 2942,
      "##GA": 2943,
      "##pling": 2944,
      "ens": 2945,
      "heart": 2946,
      "accuracy": 2947,
      "published": 2948,
      "##bs": 2949,
      "added": 2950,
      "Cal": 2951,
      "seg": 2952,
      "cycle": 2953,
      "events": 2954,
      "emerg": 2955,
      "contribution": 2956,
      "whereas": 2957,
      "way": 2958,
      "toward": 2959,
      "Us": 2960,
      "critical": 2961,
      "indicating": 2962,
      "##ify": 2963,
      "address": 2964,
      "female": 2965,
      "proposed": 2966,
      "interp": 2967,
      "few": 2968,
      "##osome": 2969,
      "PP": 2970,
      "components": 2971,
      "trials": 2972,
      "##ession": 2973,
      "saf": 2974,
      "points": 2975,
      "recomm": 2976,
      "matrix": 2977,
      "AB": 2978,
      "go": 2979,
      "HR": 2980,
      "therapeutic": 2981,
      "challeng": 2982,
      "compounds": 2983,
      "dig": 2984,
      "##agen": 2985,
      "measures": 2986,
      "experiment": 2987,
      "##ering": 2988,
      "##ground": 2989,
      "limit": 2990,
      "activities": 2991,
      "hum": 2992,
      "sil": 2993,
      "##ovascular": 2994,
      "Af": 2995,
      "##ii": 2996,
      "implement": 2997,
      "##titution": 2998,
      "1999": 2999,
      "metabolic": 3000,
      "If": 3001,
      "evolution": 3002,
      "##onomic": 3003,
      "##VA": 3004,
      "migr": 3005,
      "Acc": 3006,
      "color": 3007,
      "Onc": 3008,
      "amino": 3009,
      "##entially": 3010,
      "Bas": 3011,
      "versus": 3012,
      "Rel": 3013,
      "##ye": 3014,
      "##itional": 3015,
      "##isms": 3016,
      "EM": 3017,
      "directly": 3018,
      "molecules": 3019,
      "bacterial": 3020,
      "##otal": 3021,
      "pregn": 3022,
      "##isted": 3023,
      "healthy": 3024,
      "##itz": 3025,
      "cognitive": 3026,
      "##epackage": 3027,
      "usepackage": 3028,
      "distin": 3029,
      "application": 3030,
      "bro": 3031,
      "338": 3032,
      "RT": 3033,
      "poor": 3034,
      "150": 3035,
      "Dec": 3036,
      "stem": 3037,
      "##amine": 3038,
      "plants": 3039,
      "Path": 3040,
      "capac": 3041,
      "##72": 3042,
      "Wu": 3043,
      "Sal": 3044,
      "##otid": 3045,
      "##brid": 3046,
      "impair": 3047,
      "mid": 3048,
      "##ytic": 3049,
      "metabolism": 3050,
      "##eph": 3051,
      "efficacy": 3052,
      "strategies": 3053,
      "##ending": 3054,
      "infected": 3055,
      "essential": 3056,
      "damage": 3057,
      "Can": 3058,
      "Ser": 3059,
      "ur": 3060,
      "median": 3061,
      "##igure": 3062,
      "##acts": 3063,
      "since": 3064,
      "When": 3065,
      "With": 3066,
      "baseline": 3067,
      "Dif": 3068,
      "therefore": 3069,
      "fit": 3070,
      "Ig": 3071,
      "##orption": 3072,
      "NA": 3073,
      "synthesis": 3074,
      "SP": 3075,
      "##reh": 3076,
      "colon": 3077,
      "##ynth": 3078,
      "wild": 3079,
      "##82": 3080,
      "fix": 3081,
      "setting": 3082,
      "##LC": 3083,
      "##IP": 3084,
      "##omal": 3085,
      "arr": 3086,
      "##ica": 3087,
      "##estinal": 3088,
      "clos": 3089,
      ">=": 3090,
      "##icial": 3091,
      "Ma": 3092,
      "increases": 3093,
      "##ict": 3094,
      "##imer": 3095,
      "##atter": 3096,
      "##esting": 3097,
      "fold": 3098,
      "practice": 3099,
      "nutr": 3100,
      "##otor": 3101,
      "supported": 3102,
      "invas": 3103,
      "##erate": 3104,
      "##operative": 3105,
      "Ec": 3106,
      "**": 3107,
      "Fl": 3108,
      "##OC": 3109,
      "Neuros": 3110,
      "proportion": 3111,
      "antibodies": 3112,
      "##omics": 3113,
      "DE": 3114,
      "NM": 3115,
      "##61": 3116,
      "##isting": 3117,
      "##IR": 3118,
      "##otypes": 3119,
      "full": 3120,
      "##AB": 3121,
      "##rolog": 3122,
      "##52": 3123,
      "context": 3124,
      "good": 3125,
      "combined": 3126,
      "##54": 3127,
      "host": 3128,
      "confirmed": 3129,
      "##inary": 3130,
      "mutations": 3131,
      "reduce": 3132,
      "markers": 3133,
      "layer": 3134,
      "##alk": 3135,
      "intensity": 3136,
      "##coh": 3137,
      "##eved": 3138,
      "##by": 3139,
      "absence": 3140,
      "rats": 3141,
      "differentiation": 3142,
      "sequencing": 3143,
      "cytok": 3144,
      "induc": 3145,
      "##hood": 3146,
      "progression": 3147,
      "relevant": 3148,
      "arter": 3149,
      "highl": 3150,
      "complete": 3151,
      "syndrome": 3152,
      "Care": 3153,
      "leading": 3154,
      "So": 3155,
      "##to": 3156,
      "Ann": 3157,
      "significance": 3158,
      "reach": 3159,
      "tumors": 3160,
      "elev": 3161,
      "Group": 3162,
      "require": 3163,
      "secondary": 3164,
      "Human": 3165,
      "history": 3166,
      "Lu": 3167,
      "##ections": 3168,
      "Exper": 3169,
      "pan": 3170,
      "##enal": 3171,
      "understanding": 3172,
      "##tle": 3173,
      "administration": 3174,
      "indicates": 3175,
      "##pir": 3176,
      "proliferation": 3177,
      "quantit": 3178,
      "Front": 3179,
      "processing": 3180,
      "smok": 3181,
      "(-": 3182,
      "six": 3183,
      "appropri": 3184,
      "progn": 3185,
      "highest": 3186,
      "improved": 3187,
      "disorders": 3188,
      "s4": 3189,
      "PE": 3190,
      "##itu": 3191,
      "macroph": 3192,
      "##pecially": 3193,
      "old": 3194,
      "##ailability": 3195,
      "##anch": 3196,
      "controlled": 3197,
      "Associ": 3198,
      "her": 3199,
      "van": 3200,
      "meta": 3201,
      "CN": 3202,
      "quantif": 3203,
      "categor": 3204,
      "estimated": 3205,
      "##ini": 3206,
      "oste": 3207,
      "particularly": 3208,
      "release": 3209,
      "Center": 3210,
      "linear": 3211,
      "carbon": 3212,
      "##oids": 3213,
      "##osa": 3214,
      "##estern": 3215,
      "apoptosis": 3216,
      "##iang": 3217,
      "##92": 3218,
      "SA": 3219,
      "Control": 3220,
      "##otox": 3221,
      "PT": 3222,
      "Park": 3223,
      "star": 3224,
      "0001": 3225,
      "%),": 3226,
      "RA": 3227,
      "incidence": 3228,
      "showing": 3229,
      "rang": 3230,
      "##izes": 3231,
      "align": 3232,
      "plat": 3233,
      "##entific": 3234,
      "Ge": 3235,
      "expected": 3236,
      "##occ": 3237,
      "investigated": 3238,
      "abund": 3239,
      "##mann": 3240,
      "##urg": 3241,
      "##pite": 3242,
      "microscop": 3243,
      "maximum": 3244,
      "yield": 3245,
      "##elf": 3246,
      "UK": 3247,
      "##ele": 3248,
      "##agne": 3249,
      "bacteria": 3250,
      "##II": 3251,
      "##ara": 3252,
      "HP": 3253,
      "examined": 3254,
      "measurements": 3255,
      "lo": 3256,
      "degrad": 3257,
      "super": 3258,
      "While": 3259,
      "##xi": 3260,
      "inst": 3261,
      "affect": 3262,
      "Tre": 3263,
      "fraction": 3264,
      "especially": 3265,
      "mental": 3266,
      "document": 3267,
      "suggesting": 3268,
      "prote": 3269,
      "##leep": 3270,
      "spati": 3271,
      "Attribution": 3272,
      "act": 3273,
      "Over": 3274,
      "IR": 3275,
      "isolated": 3276,
      "seen": 3277,
      "epith": 3278,
      "##62": 3279,
      "environmental": 3280,
      "Mo": 3281,
      "Yu": 3282,
      "ME": 3283,
      "screening": 3284,
      "catal": 3285,
      "##ulating": 3286,
      "variation": 3287,
      "cost": 3288,
      "enrich": 3289,
      "accum": 3290,
      "TM": 3291,
      "pred": 3292,
      "Develop": 3293,
      "chann": 3294,
      "natural": 3295,
      "Based": 3296,
      "Mal": 3297,
      "ge": 3298,
      "##aria": 3299,
      "label": 3300,
      "##rup": 3301,
      "squ": 3302,
      "clear": 3303,
      "##less": 3304,
      "your": 3305,
      "global": 3306,
      "##elines": 3307,
      "##ova": 3308,
      "skin": 3309,
      "PS": 3310,
      "buffer": 3311,
      "##ext": 3312,
      "cere": 3313,
      "facilit": 3314,
      "##94": 3315,
      "ever": 3316,
      "1998": 3317,
      "rapid": 3318,
      "agg": 3319,
      "reproduction": 3320,
      "##iological": 3321,
      "drugs": 3322,
      "incubated": 3323,
      "epid": 3324,
      "men": 3325,
      "adult": 3326,
      "Cardi": 3327,
      "PI": 3328,
      "search": 3329,
      "substr": 3330,
      "##ana": 3331,
      "animal": 3332,
      "##astro": 3333,
      "##tral": 3334,
      "##ements": 3335,
      "air": 3336,
      "##obacter": 3337,
      "##ceptual": 3338,
      "survey": 3339,
      "therm": 3340,
      "Commun": 3341,
      "cat": 3342,
      "cryst": 3343,
      "III": 3344,
      "caused": 3345,
      "##Med": 3346,
      "##olar": 3347,
      "##ophil": 3348,
      "##que": 3349,
      "##tine": 3350,
      "carried": 3351,
      "chemical": 3352,
      "##hes": 3353,
      "##sis": 3354,
      "altern": 3355,
      "##anol": 3356,
      "##ura": 3357,
      "composition": 3358,
      "microbi": 3359,
      "##omas": 3360,
      "rob": 3361,
      "bo": 3362,
      "home": 3363,
      "s2": 3364,
      "##erve": 3365,
      "although": 3366,
      "side": 3367,
      "SE": 3368,
      "central": 3369,
      "##iability": 3370,
      "staining": 3371,
      "gas": 3372,
      "achi": 3373,
      "countries": 3374,
      "wid": 3375,
      "##ifically": 3376,
      "acet": 3377,
      "##DNA": 3378,
      "den": 3379,
      "represents": 3380,
      "States": 3381,
      "structural": 3382,
      "mel": 3383,
      "statistically": 3384,
      "lipid": 3385,
      "protocol": 3386,
      "##reshold": 3387,
      "IV": 3388,
      "affected": 3389,
      "##oring": 3390,
      "##set": 3391,
      "##aged": 3392,
      "coeff": 3393,
      "suggests": 3394,
      "education": 3395,
      "##iques": 3396,
      "HC": 3397,
      "H2": 3398,
      "Gre": 3399,
      "move": 3400,
      "green": 3401,
      "##bry": 3402,
      "poly": 3403,
      "hyper": 3404,
      "##itr": 3405,
      "approximately": 3406,
      "predict": 3407,
      "kinase": 3408,
      "suggested": 3409,
      "experience": 3410,
      "AA": 3411,
      "near": 3412,
      "infections": 3413,
      "American": 3414,
      "License": 3415,
      "Mon": 3416,
      "##way": 3417,
      "##ologies": 3418,
      "profil": 3419,
      "##irth": 3420,
      "dataset": 3421,
      "##rosis": 3422,
      "classification": 3423,
      "prediction": 3424,
      "##ero": 3425,
      "##be": 3426,
      "##uts": 3427,
      "##81": 3428,
      "##apan": 3429,
      "##ream": 3430,
      "WT": 3431,
      "enhanced": 3432,
      "variable": 3433,
      "##roke": 3434,
      "##ivery": 3435,
      "##inf": 3436,
      "##ota": 3437,
      "graph": 3438,
      "means": 3439,
      "##ocyte": 3440,
      "Public": 3441,
      "##pha": 3442,
      "tool": 3443,
      "head": 3444,
      "viral": 3445,
      "designed": 3446,
      "1997": 3447,
      "third": 3448,
      "distance": 3449,
      "oxygen": 3450,
      "hours": 3451,
      "##arily": 3452,
      "'-": 3453,
      "interventions": 3454,
      "##etr": 3455,
      "##oler": 3456,
      "Germany": 3457,
      "##LR": 3458,
      "alter": 3459,
      "##err": 3460,
      "##apping": 3461,
      "HD": 3462,
      "Molecular": 3463,
      "##OD": 3464,
      "young": 3465,
      "Adv": 3466,
      "duration": 3467,
      "##oplasm": 3468,
      "respond": 3469,
      "SS": 3470,
      "500": 3471,
      "distinct": 3472,
      "##BM": 3473,
      "capacity": 3474,
      "Afric": 3475,
      "upon": 3476,
      "exclud": 3477,
      "online": 3478,
      "3D": 3479,
      "acids": 3480,
      "##ayed": 3481,
      "Neurosci": 3482,
      "algorithm": 3483,
      "##inated": 3484,
      "exerc": 3485,
      "##usted": 3486,
      "appropriate": 3487,
      "##51": 3488,
      "TR": 3489,
      "##ressive": 3490,
      "##ope": 3491,
      "larger": 3492,
      "wide": 3493,
      "##ceed": 3494,
      "transfer": 3495,
      "Patients": 3496,
      "##IN": 3497,
      "##IS": 3498,
      "another": 3499,
      "whole": 3500,
      "identification": 3501,
      "compreh": 3502,
      "conserv": 3503,
      "##ho": 3504,
      "GS": 3505,
      "##RNAs": 3506,
      "300": 3507,
      "cent": 3508,
      "JA": 3509,
      "percentage": 3510,
      "older": 3511,
      "##GT": 3512,
      "##idney": 3513,
      "JM": 3514,
      "##uter": 3515,
      "failure": 3516,
      "Investig": 3517,
      "assemb": 3518,
      "predicted": 3519,
      "##arb": 3520,
      "threshold": 3521,
      "##ochemical": 3522,
      "##esity": 3523,
      "linked": 3524,
      "Author": 3525,
      "Similar": 3526,
      "importance": 3527,
      "remains": 3528,
      "best": 3529,
      "depression": 3530,
      "IF": 3531,
      "##ritis": 3532,
      "below": 3533,
      "stability": 3534,
      "LD": 3535,
      "ML": 3536,
      "applications": 3537,
      "soil": 3538,
      "##eli": 3539,
      "devi": 3540,
      "Sam": 3541,
      "Biom": 3542,
      "database": 3543,
      "produced": 3544,
      "efficiency": 3545,
      "activated": 3546,
      "cruc": 3547,
      "##etric": 3548,
      "carcinoma": 3549,
      "##igg": 3550,
      "approved": 3551,
      "situ": 3552,
      "dos": 3553,
      "Japan": 3554,
      "MP": 3555,
      "Non": 3556,
      "##raz": 3557,
      "Central": 3558,
      "procedure": 3559,
      "##opar": 3560,
      "frag": 3561,
      "fram": 3562,
      "Protein": 3563,
      "mar": 3564,
      "##ges": 3565,
      "transf": 3566,
      "healthcare": 3567,
      "Sec": 3568,
      "amount": 3569,
      "Sign": 3570,
      "obj": 3571,
      "##itch": 3572,
      "provides": 3573,
      "Plant": 3574,
      "##function": 3575,
      "evaluate": 3576,
      "bound": 3577,
      "mes": 3578,
      "around": 3579,
      "##yright": 3580,
      "strategy": 3581,
      "Yes": 3582,
      "clin": 3583,
      "studied": 3584,
      "cut": 3585,
      "CP": 3586,
      "call": 3587,
      "##ocal": 3588,
      "##tre": 3589,
      "seed": 3590,
      "Food": 3591,
      "130": 3592,
      "supplement": 3593,
      "Mean": 3594,
      "dil": 3595,
      "Joh": 3596,
      "Development": 3597,
      "##ula": 3598,
      "phosphory": 3599,
      "oral": 3600,
      "##otion": 3601,
      "##int": 3602,
      "##me": 3603,
      "##anes": 3604,
      "ultr": 3605,
      "Cu": 3606,
      "much": 3607,
      "##opro": 3608,
      "SR": 3609,
      "##hao": 3610,
      "##tivation": 3611,
      "error": 3612,
      "##tiveness": 3613,
      "blue": 3614,
      "hy": 3615,
      "decision": 3616,
      "##clusions": 3617,
      "Os": 3618,
      "Xu": 3619,
      "comm": 3620,
      "##ype": 3621,
      "##dom": 3622,
      "##tricted": 3623,
      "measurement": 3624,
      "receptors": 3625,
      "First": 3626,
      "mutant": 3627,
      "##wn": 3628,
      "##monary": 3629,
      "established": 3630,
      "##obl": 3631,
      "##anning": 3632,
      "Total": 3633,
      "component": 3634,
      "Det": 3635,
      "relatively": 3636,
      "inhibitor": 3637,
      "Materials": 3638,
      "NF": 3639,
      "match": 3640,
      "rev": 3641,
      "Nutr": 3642,
      "US": 3643,
      "MH": 3644,
      "##bre": 3645,
      "Chin": 3646,
      "DC": 3647,
      "approaches": 3648,
      "prop": 3649,
      "por": 3650,
      "##agnetic": 3651,
      "##LA": 3652,
      "detect": 3653,
      "cardiac": 3654,
      "mitochondrial": 3655,
      "able": 3656,
      "regulated": 3657,
      "Statistical": 3658,
      "NC": 3659,
      "##IT": 3660,
      "##ico": 3661,
      "##ieve": 3662,
      "insulin": 3663,
      "##100": 3664,
      "##mentation": 3665,
      "recr": 3666,
      "##yro": 3667,
      "TB": 3668,
      "action": 3669,
      "Model": 3670,
      "polymer": 3671,
      "##uv": 3672,
      "MT": 3673,
      "recorded": 3674,
      "Ol": 3675,
      "don": 3676,
      "diagnostic": 3677,
      "##bio": 3678,
      "place": 3679,
      "##asts": 3680,
      "Red": 3681,
      "DR": 3682,
      "bio": 3683,
      "##enn": 3684,
      "CF": 3685,
      "embry": 3686,
      "105": 3687,
      "European": 3688,
      "spect": 3689,
      "Discussion": 3690,
      "##co": 3691,
      "##atch": 3692,
      "making": 3693,
      "delivery": 3694,
      "techniques": 3695,
      "##odium": 3696,
      "##ato": 3697,
      "They": 3698,
      "agre": 3699,
      "needed": 3700,
      "##arl": 3701,
      "##cohol": 3702,
      "respir": 3703,
      "cann": 3704,
      "DA": 3705,
      "Neuro": 3706,
      "generation": 3707,
      "world": 3708,
      "##ime": 3709,
      "deep": 3710,
      "##osomes": 3711,
      "degree": 3712,
      "discuss": 3713,
      "Coll": 3714,
      "cho": 3715,
      "suppress": 3716,
      "Cells": 3717,
      "crucial": 3718,
      "enzyme": 3719,
      "school": 3720,
      "hypert": 3721,
      "students": 3722,
      "thick": 3723,
      "direction": 3724,
      "Stat": 3725,
      "##amb": 3726,
      "##sh": 3727,
      "Using": 3728,
      "pros": 3729,
      "##encies": 3730,
      "memory": 3731,
      "diversity": 3732,
      "services": 3733,
      "##tives": 3734,
      "SH": 3735,
      "endoth": 3736,
      "106": 3737,
      "BC": 3738,
      "nature": 3739,
      "##we": 3740,
      "regarding": 3741,
      "##iology": 3742,
      "hal": 3743,
      "Finally": 3744,
      "treatments": 3745,
      "##MS": 3746,
      "##gin": 3747,
      "##icular": 3748,
      "spatial": 3749,
      "surgical": 3750,
      "##EC": 3751,
      "##atics": 3752,
      "##ostic": 3753,
      "##argeting": 3754,
      "Ob": 3755,
      "relationships": 3756,
      "##umin": 3757,
      "##era": 3758,
      "stimulation": 3759,
      "what": 3760,
      "wash": 3761,
      "publication": 3762,
      "##itrogen": 3763,
      "##ticip": 3764,
      "##aily": 3765,
      "ES": 3766,
      "bias": 3767,
      "Lin": 3768,
      "networks": 3769,
      "3389": 3770,
      "disorder": 3771,
      "secre": 3772,
      "attention": 3773,
      "prepared": 3774,
      "##orts": 3775,
      "Huang": 3776,
      "##ench": 3777,
      "vascular": 3778,
      "internal": 3779,
      "product": 3780,
      "grid": 3781,
      "neural": 3782,
      "mutation": 3783,
      "difficult": 3784,
      "PBS": 3785,
      "##urse": 3786,
      "##ancre": 3787,
      "##elling": 3788,
      "pm": 3789,
      "PLoS": 3790,
      "##orpor": 3791,
      "NH": 3792,
      "continuous": 3793,
      "##duce": 3794,
      "##ufact": 3795,
      "##omer": 3796,
      "ster": 3797,
      "transition": 3798,
      "##ds": 3799,
      "must": 3800,
      "##ophag": 3801,
      "##aces": 3802,
      "##wise": 3803,
      "##poral": 3804,
      "Fund": 3805,
      "lic": 3806,
      "##ework": 3807,
      "##ham": 3808,
      "Organ": 3809,
      "##gl": 3810,
      "Del": 3811,
      "exhibited": 3812,
      "##91": 3813,
      "##ighted": 3814,
      "##td": 3815,
      "having": 3816,
      "Struct": 3817,
      "bur": 3818,
      "correlated": 3819,
      "##ometry": 3820,
      "LC": 3821,
      "magn": 3822,
      "contact": 3823,
      "necessary": 3824,
      "though": 3825,
      "##andid": 3826,
      "##thers": 3827,
      "##AA": 3828,
      "taken": 3829,
      "consent": 3830,
      "oxidative": 3831,
      "biomark": 3832,
      "Microbiol": 3833,
      "certain": 3834,
      "characterized": 3835,
      "degradation": 3836,
      "assum": 3837,
      "##isition": 3838,
      "draft": 3839,
      "variants": 3840,
      "##ophys": 3841,
      "sleep": 3842,
      "Experim": 3843,
      "School": 3844,
      "##ceptib": 3845,
      "mainly": 3846,
      "overl": 3847,
      "pass": 3848,
      "##ON": 3849,
      "plot": 3850,
      "##aring": 3851,
      "##apl": 3852,
      "Austr": 3853,
      "dimension": 3854,
      "shif": 3855,
      "##ama": 3856,
      "Disease": 3857,
      "regulatory": 3858,
      "Rob": 3859,
      "1996": 3860,
      "##akes": 3861,
      "1000": 3862,
      "Pharmac": 3863,
      "validation": 3864,
      "South": 3865,
      "Ak": 3866,
      "##oto": 3867,
      "numbers": 3868,
      "lys": 3869,
      "Ox": 3870,
      "barri": 3871,
      "Age": 3872,
      "GC": 3873,
      "003": 3874,
      "##roduc": 3875,
      "employed": 3876,
      "TC": 3877,
      "peptide": 3878,
      "Access": 3879,
      "##idity": 3880,
      "##eb": 3881,
      "##try": 3882,
      "##oster": 3883,
      "intrac": 3884,
      "adapt": 3885,
      "members": 3886,
      "ED": 3887,
      "##xiety": 3888,
      "interests": 3889,
      "Pa": 3890,
      "##urb": 3891,
      "Anti": 3892,
      "Id": 3893,
      "inhibitors": 3894,
      "broad": 3895,
      "<=": 3896,
      "resistant": 3897,
      "chain": 3898,
      "series": 3899,
      "##ceived": 3900,
      "Sa": 3901,
      "Information": 3902,
      "##sp": 3903,
      "contribute": 3904,
      "aspec": 3905,
      "Soci": 3906,
      "PMID": 3907,
      "##UR": 3908,
      "involve": 3909,
      "020": 3910,
      "Open": 3911,
      "bu": 3912,
      "##ometric": 3913,
      "rather": 3914,
      "cred": 3915,
      "##120": 3916,
      "##awa": 3917,
      "GP": 3918,
      "feed": 3919,
      "signals": 3920,
      "##gramm": 3921,
      "##SCs": 3922,
      "safety": 3923,
      "exercise": 3924,
      "nuclear": 3925,
      "##aves": 3926,
      "Effect": 3927,
      "##ires": 3928,
      "polic": 3929,
      "resolution": 3930,
      "tog": 3931,
      "MB": 3932,
      "##lin": 3933,
      "investigation": 3934,
      "##ydr": 3935,
      "enhanc": 3936,
      "CL": 3937,
      "every": 3938,
      "References": 3939,
      "TNF": 3940,
      "prevent": 3941,
      "##angu": 3942,
      "cardiovascular": 3943,
      "Proc": 3944,
      "##atives": 3945,
      "Mac": 3946,
      "investigate": 3947,
      "##dle": 3948,
      "coli": 3949,
      "NS": 3950,
      "##aster": 3951,
      "San": 3952,
      "together": 3953,
      "##ediatric": 3954,
      "potentially": 3955,
      "mixed": 3956,
      "fluorescence": 3957,
      "##normal": 3958,
      "002": 3959,
      "heat": 3960,
      "107": 3961,
      "dynamics": 3962,
      "##ira": 3963,
      "monitoring": 3964,
      "consequ": 3965,
      "##etry": 3966,
      "Kr": 3967,
      "ij": 3968,
      "rat": 3969,
      "1995": 3970,
      "Two": 3971,
      "space": 3972,
      "vaccine": 3973,
      "119": 3974,
      "108": 3975,
      "##trans": 3976,
      "Biology": 3977,
      "ID": 3978,
      "##pr": 3979,
      "guidelines": 3980,
      "##oscop": 3981,
      "alone": 3982,
      "##li": 3983,
      "diam": 3984,
      "preparation": 3985,
      "HA": 3986,
      "soci": 3987,
      "Immunol": 3988,
      "Nan": 3989,
      "axis": 3990,
      "onset": 3991,
      "origin": 3992,
      "##uting": 3993,
      "By": 3994,
      "adoles": 3995,
      "comple": 3996,
      "Martin": 3997,
      "mamm": 3998,
      "SL": 3999,
      "reason": 4000,
      "##MA": 4001,
      "##aternal": 4002,
      "##tile": 4003,
      "vector": 4004,
      "Child": 4005,
      "##/-": 4006,
      "Chang": 4007,
      "##osts": 4008,
      "Eur": 4009,
      "manufact": 4010,
      "104": 4011,
      "Hyp": 4012,
      "las": 4013,
      "coord": 4014,
      "##aries": 4015,
      "BMI": 4016,
      "successful": 4017,
      "PF": 4018,
      "La": 4019,
      "center": 4020,
      "daily": 4021,
      "subsequent": 4022,
      "Ni": 4023,
      "##ils": 4024,
      "transcript": 4025,
      "Other": 4026,
      "S2": 4027,
      "##07": 4028,
      "media": 4029,
      "##eless": 4030,
      "Sun": 4031,
      "##mitte": 4032,
      "##medi": 4033,
      "Found": 4034,
      "permits": 4035,
      "C2": 4036,
      "targets": 4037,
      "Zhao": 4038,
      "##ynthesis": 4039,
      "019": 4040,
      "##seud": 4041,
      "##aim": 4042,
      "##ford": 4043,
      "profile": 4044,
      "feature": 4045,
      "1021": 4046,
      "enhance": 4047,
      "tw": 4048,
      "BMC": 4049,
      "Vis": 4050,
      "##GC": 4051,
      "##ka": 4052,
      "extracted": 4053,
      "fixed": 4054,
      "white": 4055,
      "SAR": 4056,
      "eas": 4057,
      "C3": 4058,
      "##use": 4059,
      "transl": 4060,
      "cou": 4061,
      "substan": 4062,
      "##OL": 4063,
      "##rown": 4064,
      "problem": 4065,
      "transport": 4066,
      "consumption": 4067,
      "arch": 4068,
      "ion": 4069,
      "susceptib": 4070,
      "make": 4071,
      "##cted": 4072,
      "##formed": 4073,
      "paras": 4074,
      "NR": 4075,
      "institution": 4076,
      "elements": 4077,
      "##alian": 4078,
      "fibro": 4079,
      "##EN": 4080,
      "stable": 4081,
      "##off": 4082,
      "Sil": 4083,
      "##ened": 4084,
      "last": 4085,
      "##ee": 4086,
      "lesions": 4087,
      "technique": 4088,
      "##ogenous": 4089,
      "angi": 4090,
      "World": 4091,
      "until": 4092,
      "extraction": 4093,
      "const": 4094,
      "antigen": 4095,
      "005": 4096,
      "stages": 4097,
      "challenges": 4098,
      "reducing": 4099,
      "marker": 4100,
      "JC": 4101,
      "od": 4102,
      "##ran": 4103,
      "Soc": 4104,
      "exposed": 4105,
      "John": 4106,
      "illustr": 4107,
      "birth": 4108,
      "NP": 4109,
      "##umn": 4110,
      "##osomal": 4111,
      "Pe": 4112,
      "gender": 4113,
      "##ipher": 4114,
      "##ineering": 4115,
      "##erex": 4116,
      "obesity": 4117,
      "Kh": 4118,
      "125": 4119,
      "acquisition": 4120,
      "kidney": 4121,
      "motor": 4122,
      "curr": 4123,
      "room": 4124,
      "##esth": 4125,
      "nanopar": 4126,
      "Wil": 4127,
      "##itude": 4128,
      "randomized": 4129,
      "##05": 4130,
      "pregnancy": 4131,
      "special": 4132,
      "##ologic": 4133,
      "check": 4134,
      "transmission": 4135,
      "##ufficient": 4136,
      "resulted": 4137,
      "confirm": 4138,
      "gut": 4139,
      "conver": 4140,
      "quantitative": 4141,
      "Cop": 4142,
      "C1": 4143,
      "##iable": 4144,
      "aged": 4145,
      "##ski": 4146,
      "##cium": 4147,
      "##stream": 4148,
      "BA": 4149,
      "##otechn": 4150,
      "##iao": 4151,
      "##de": 4152,
      "solid": 4153,
      "macrophages": 4154,
      "developing": 4155,
      "According": 4156,
      "sensitive": 4157,
      "##ious": 4158,
      "profession": 4159,
      "curve": 4160,
      "%.": 4161,
      "epithelial": 4162,
      "##ike": 4163,
      "##01": 4164,
      "##ococc": 4165,
      "dysfunction": 4166,
      "modified": 4167,
      "aden": 4168,
      "chlor": 4169,
      "effectiveness": 4170,
      "renal": 4171,
      "##onia": 4172,
      "resources": 4173,
      "unique": 4174,
      "##naire": 4175,
      "##LI": 4176,
      "phyl": 4177,
      "PH": 4178,
      "##ades": 4179,
      "##ternal": 4180,
      "##terol": 4181,
      "103": 4182,
      "AI": 4183,
      "run": 4184,
      "##alm": 4185,
      "complications": 4186,
      "stroke": 4187,
      "recomb": 4188,
      "genomic": 4189,
      "##ED": 4190,
      "endothelial": 4191,
      "comprehensive": 4192,
      "##xt": 4193,
      "##biotic": 4194,
      "Dev": 4195,
      "reports": 4196,
      "glut": 4197,
      "Ber": 4198,
      "great": 4199,
      "Zhou": 4200,
      "CB": 4201,
      "divers": 4202,
      "respiratory": 4203,
      "heterogene": 4204,
      "Effects": 4205,
      "##cher": 4206,
      "slight": 4207,
      "##TA": 4208,
      "problems": 4209,
      "##ki": 4210,
      "##neum": 4211,
      "##romb": 4212,
      "##crip": 4213,
      "event": 4214,
      "adjusted": 4215,
      "location": 4216,
      "underlying": 4217,
      "inn": 4218,
      "phenotype": 4219,
      "beta": 4220,
      "ng": 4221,
      "##ariate": 4222,
      "bond": 4223,
      "Num": 4224,
      "Association": 4225,
      "##isation": 4226,
      "incorpor": 4227,
      "double": 4228,
      "##andemic": 4229,
      "elevated": 4230,
      "##ycin": 4231,
      "interview": 4232,
      "Among": 4233,
      "enti": 4234,
      "Additional": 4235,
      "##ban": 4236,
      "AF": 4237,
      "Ltd": 4238,
      "##inson": 4239,
      "limitations": 4240,
      "Technology": 4241,
      "injection": 4242,
      "MI": 4243,
      "induction": 4244,
      "Each": 4245,
      "underg": 4246,
      "others": 4247,
      "CV": 4248,
      "##illi": 4249,
      "cover": 4250,
      "##mittee": 4251,
      "##ients": 4252,
      "incl": 4253,
      "##istered": 4254,
      "##OX": 4255,
      "##PD": 4256,
      "fung": 4257,
      "Character": 4258,
      "upper": 4259,
      "Since": 4260,
      "022": 4261,
      "t00": 4262,
      "WH": 4263,
      "1080": 4264,
      "Foundation": 4265,
      "From": 4266,
      "optimal": 4267,
      "improvement": 4268,
      "##elet": 4269,
      "Exp": 4270,
      "project": 4271,
      "Biochem": 4272,
      "##ald": 4273,
      "##lege": 4274,
      "abnormal": 4275,
      "framework": 4276,
      "repl": 4277,
      "##ishing": 4278,
      "Chinese": 4279,
      "Vari": 4280,
      "Curr": 4281,
      "##raf": 4282,
      "meth": 4283,
      "advanced": 4284,
      "##eti": 4285,
      "018": 4286,
      "laboratory": 4287,
      "accumulation": 4288,
      "BR": 4289,
      "concern": 4290,
      "hous": 4291,
      "targeting": 4292,
      "females": 4293,
      "##ives": 4294,
      "interpret": 4295,
      "gel": 4296,
      "##OVA": 4297,
      "vary": 4298,
      "##otide": 4299,
      "bal": 4300,
      "probability": 4301,
      "targeted": 4302,
      "##kin": 4303,
      "tumour": 4304,
      "##plantation": 4305,
      "##ully": 4306,
      "achieved": 4307,
      "construc": 4308,
      "toler": 4309,
      "declare": 4310,
      "domains": 4311,
      "Si": 4312,
      "migration": 4313,
      "##ceptualization": 4314,
      "leads": 4315,
      "##Table": 4316,
      "Pan": 4317,
      "procedures": 4318,
      "##ush": 4319,
      "coron": 4320,
      "basis": 4321,
      "##UC": 4322,
      "##itin": 4323,
      "account": 4324,
      "avoid": 4325,
      "causes": 4326,
      "##ying": 4327,
      "personal": 4328,
      "antioxid": 4329,
      "##02": 4330,
      "Up": 4331,
      "alternative": 4332,
      "intake": 4333,
      "##ote": 4334,
      "she": 4335,
      "##rh": 4336,
      "core": 4337,
      "pancre": 4338,
      "tools": 4339,
      "##pled": 4340,
      "Drug": 4341,
      "##03": 4342,
      "Environ": 4343,
      "humans": 4344,
      "wall": 4345,
      "Brain": 4346,
      "extract": 4347,
      "##bal": 4348,
      "severity": 4349,
      "located": 4350,
      "##icle": 4351,
      "##ectal": 4352,
      "Ha": 4353,
      "##ively": 4354,
      "input": 4355,
      "alcohol": 4356,
      "##oration": 4357,
      "miss": 4358,
      "upreg": 4359,
      "moderate": 4360,
      "alpha": 4361,
      "disp": 4362,
      "rad": 4363,
      "Second": 4364,
      "Ang": 4365,
      "Cent": 4366,
      "confidence": 4367,
      "technology": 4368,
      "malign": 4369,
      "Appl": 4370,
      "correspond": 4371,
      "##ogl": 4372,
      "wr": 4373,
      "specim": 4374,
      "##irect": 4375,
      "later": 4376,
      "##Vs": 4377,
      "##ps": 4378,
      "##aki": 4379,
      "pharmac": 4380,
      "leuk": 4381,
      "##ident": 4382,
      "leg": 4383,
      "HS": 4384,
      "Spring": 4385,
      "hybrid": 4386,
      "assign": 4387,
      "needs": 4388,
      "contributions": 4389,
      "providing": 4390,
      "sampling": 4391,
      "DS": 4392,
      "##ram": 4393,
      "Pat": 4394,
      "##eling": 4395,
      "##agg": 4396,
      "##timicro": 4397,
      "pig": 4398,
      "mach": 4399,
      "##arian": 4400,
      "##ventional": 4401,
      "##bral": 4402,
      "##icians": 4403,
      "profiles": 4404,
      "repair": 4405,
      "##06": 4406,
      "##inity": 4407,
      "license": 4408,
      "advant": 4409,
      "MRI": 4410,
      "anxiety": 4411,
      "bios": 4412,
      "panel": 4413,
      "Radi": 4414,
      "towards": 4415,
      "equal": 4416,
      "##ipheral": 4417,
      "mechanical": 4418,
      "##ancial": 4419,
      "Differ": 4420,
      "##ered": 4421,
      "tail": 4422,
      "datasets": 4423,
      "questions": 4424,
      "div": 4425,
      "Note": 4426,
      "horm": 4427,
      "AK": 4428,
      "physiological": 4429,
      "MJ": 4430,
      "interval": 4431,
      "Western": 4432,
      "atom": 4433,
      "hypothesis": 4434,
      "Van": 4435,
      "turn": 4436,
      "imm": 4437,
      "##GFR": 4438,
      "##olesterol": 4439,
      "##ocard": 4440,
      "##DM": 4441,
      "##ancers": 4442,
      "recovery": 4443,
      "males": 4444,
      "rh": 4445,
      "004": 4446,
      "substrate": 4447,
      "RS": 4448,
      "pulmonary": 4449,
      "T2": 4450,
      "Long": 4451,
      "Treatment": 4452,
      "ams": 4453,
      "assays": 4454,
      "pmc": 4455,
      "promote": 4456,
      "replic": 4457,
      "Natl": 4458,
      "parameter": 4459,
      "chemotherapy": 4460,
      "longer": 4461,
      "##iro": 4462,
      "spectrum": 4463,
      "##oul": 4464,
      "pandemic": 4465,
      "agents": 4466,
      "follows": 4467,
      "fatty": 4468,
      "##ows": 4469,
      "defin": 4470,
      "##ori": 4471,
      "%).": 4472,
      "##aditional": 4473,
      "##olved": 4474,
      "emotion": 4475,
      "MDPI": 4476,
      "metal": 4477,
      "##ya": 4478,
      "Epid": 4479,
      "induce": 4480,
      "cortex": 4481,
      "##oinform": 4482,
      "))": 4483,
      "sulf": 4484,
      "intestinal": 4485,
      "Bre": 4486,
      "electron": 4487,
      "Zhu": 4488,
      "##knowled": 4489,
      "Life": 4490,
      "thank": 4491,
      "BD": 4492,
      "knock": 4493,
      "weak": 4494,
      "recommend": 4495,
      "mob": 4496,
      "sources": 4497,
      "neutral": 4498,
      "states": 4499,
      "Educ": 4500,
      "##oral": 4501,
      "terminal": 4502,
      "depos": 4503,
      "mill": 4504,
      "occur": 4505,
      "HF": 4506,
      "g00": 4507,
      "grade": 4508,
      "##rief": 4509,
      "##itud": 4510,
      "Physiol": 4511,
      "adverse": 4512,
      "##enic": 4513,
      "Nucle": 4514,
      "##enous": 4515,
      "cited": 4516,
      "rs": 4517,
      "famil": 4518,
      "Available": 4519,
      "##gg": 4520,
      "##emat": 4521,
      "hydrox": 4522,
      "##TR": 4523,
      "annot": 4524,
      "##ises": 4525,
      "residues": 4526,
      "fully": 4527,
      "Ram": 4528,
      "sections": 4529,
      "cannot": 4530,
      "##truct": 4531,
      "##anguage": 4532,
      "confl": 4533,
      "##acch": 4534,
      "Lim": 4535,
      "##thritis": 4536,
      "##nt": 4537,
      "##SO": 4538,
      "ensure": 4539,
      "fract": 4540,
      "##yth": 4541,
      "Ital": 4542,
      "Investigation": 4543,
      "Mat": 4544,
      "unit": 4545,
      "contained": 4546,
      "specificity": 4547,
      "depend": 4548,
      "prost": 4549,
      "centr": 4550,
      "noted": 4551,
      "Both": 4552,
      "majority": 4553,
      "MO": 4554,
      "divid": 4555,
      "##oing": 4556,
      "1097": 4557,
      "Genet": 4558,
      "base": 4559,
      "400": 4560,
      "C4": 4561,
      "specifically": 4562,
      "##asp": 4563,
      "robust": 4564,
      "contains": 4565,
      "##osen": 4566,
      "course": 4567,
      "##IF": 4568,
      "clusters": 4569,
      "HE": 4570,
      "##ita": 4571,
      "external": 4572,
      "118": 4573,
      "023": 4574,
      "aggreg": 4575,
      "##back": 4576,
      "conj": 4577,
      "accept": 4578,
      "CD4": 4579,
      "NE": 4580,
      "promoter": 4581,
      "next": 4582,
      "115": 4583,
      "Low": 4584,
      "FA": 4585,
      "cultured": 4586,
      "irr": 4587,
      "##inate": 4588,
      "Oncol": 4589,
      "smoking": 4590,
      "##ema": 4591,
      "half": 4592,
      "isolates": 4593,
      "TH": 4594,
      "bp": 4595,
      "GFP": 4596,
      "exist": 4597,
      "##arv": 4598,
      "##entioned": 4599,
      "Vi": 4600,
      "##group": 4601,
      "##atitis": 4602,
      "010": 4603,
      "muc": 4604,
      "Introduction": 4605,
      "ste": 4606,
      "edu": 4607,
      "deviation": 4608,
      "s415": 4609,
      "pp": 4610,
      "##ality": 4611,
      "sets": 4612,
      "##mediate": 4613,
      "phosphorylation": 4614,
      "Hep": 4615,
      "lit": 4616,
      "##ember": 4617,
      "estimates": 4618,
      "##abetic": 4619,
      "C6": 4620,
      "column": 4621,
      "Function": 4622,
      "HM": 4623,
      "ach": 4624,
      "adhes": 4625,
      "##ida": 4626,
      "117": 4627,
      "radiation": 4628,
      "mmol": 4629,
      "s00": 4630,
      "pool": 4631,
      "Particip": 4632,
      "SARS": 4633,
      "Dav": 4634,
      "Sens": 4635,
      "background": 4636,
      "prevention": 4637,
      "##B1": 4638,
      "reproduc": 4639,
      "abundance": 4640,
      "lat": 4641,
      "dynamic": 4642,
      "useful": 4643,
      "root": 4644,
      "Hz": 4645,
      "liqu": 4646,
      "SEM": 4647,
      "GA": 4648,
      "constant": 4649,
      "introduc": 4650,
      "led": 4651,
      "##ogenetic": 4652,
      "writing": 4653,
      "associations": 4654,
      "##ito": 4655,
      "excluded": 4656,
      "CE": 4657,
      "##08": 4658,
      "##oot": 4659,
      "##yroid": 4660,
      "##inger": 4661,
      "roles": 4662,
      "date": 4663,
      "102": 4664,
      "sustain": 4665,
      "applic": 4666,
      "recently": 4667,
      "mode": 4668,
      "fluid": 4669,
      "014": 4670,
      "Scale": 4671,
      "##04": 4672,
      "offer": 4673,
      "016": 4674,
      "produce": 4675,
      "items": 4676,
      "particles": 4677,
      "isch": 4678,
      "##RT": 4679,
      "101": 4680,
      "speed": 4681,
      "##olds": 4682,
      "numer": 4683,
      "IP": 4684,
      "RP": 4685,
      "ms": 4686,
      "aer": 4687,
      "Du": 4688,
      "##tices": 4689,
      "focused": 4690,
      "During": 4691,
      "##ea": 4692,
      "person": 4693,
      "##bor": 4694,
      "##ifest": 4695,
      "adip": 4696,
      "systemic": 4697,
      "Of": 4698,
      "candid": 4699,
      "Acta": 4700,
      "VE": 4701,
      "RE": 4702,
      "DL": 4703,
      "##isons": 4704,
      "forms": 4705,
      "006": 4706,
      "platform": 4707,
      "##ords": 4708,
      "##east": 4709,
      "CoV": 4710,
      "Tan": 4711,
      "overex": 4712,
      "Sig": 4713,
      "chromosome": 4714,
      "##uma": 4715,
      "examination": 4716,
      "coefficient": 4717,
      "216": 4718,
      "Fu": 4719,
      "Mater": 4720,
      "enzymes": 4721,
      "##knowledg": 4722,
      "##BC": 4723,
      "nanoparticles": 4724,
      "ATP": 4725,
      "ANOVA": 4726,
      "Er": 4727,
      "##09": 4728,
      "nam": 4729,
      "estimate": 4730,
      "Conceptualization": 4731,
      "demonstrate": 4732,
      "implementation": 4733,
      "Methodology": 4734,
      "temporal": 4735,
      "My": 4736,
      "TP": 4737,
      "ONE": 4738,
      "Ts": 4739,
      "calcium": 4740,
      "Cam": 4741,
      "band": 4742,
      "1994": 4743,
      "##Gs": 4744,
      "TA": 4745,
      "##ectivity": 4746,
      "note": 4747,
      "##rospective": 4748,
      "unres": 4749,
      "dietary": 4750,
      "(+": 4751,
      "##thern": 4752,
      "017": 4753,
      "availability": 4754,
      "du": 4755,
      "tax": 4756,
      "nurs": 4757,
      "##ematic": 4758,
      "##TC": 4759,
      "removed": 4760,
      "##iatry": 4761,
      "Editor": 4762,
      "##overn": 4763,
      "##FA": 4764,
      "GO": 4765,
      "placed": 4766,
      "sensor": 4767,
      "iron": 4768,
      "##enes": 4769,
      "126": 4770,
      "##elli": 4771,
      "Kn": 4772,
      "Pers": 4773,
      "blot": 4774,
      "microbial": 4775,
      "Here": 4776,
      "##tra": 4777,
      "##biotics": 4778,
      "find": 4779,
      "extre": 4780,
      "021": 4781,
      "##uck": 4782,
      "understand": 4783,
      "Multi": 4784,
      "##iral": 4785,
      "rot": 4786,
      "disrup": 4787,
      "Jun": 4788,
      "##idation": 4789,
      "Some": 4790,
      "polar": 4791,
      "##organ": 4792,
      "responsible": 4793,
      "orth": 4794,
      "C5": 4795,
      "##ptake": 4796,
      "black": 4797,
      "diverse": 4798,
      "##itamin": 4799,
      "living": 4800,
      "flex": 4801,
      "subt": 4802,
      "generally": 4803,
      "represented": 4804,
      "rich": 4805,
      "##most": 4806,
      "magnetic": 4807,
      "reactions": 4808,
      "##ocamp": 4809,
      "efficient": 4810,
      "##esized": 4811,
      "Sol": 4812,
      "variance": 4813,
      "Engl": 4814,
      "past": 4815,
      "Do": 4816,
      "lateral": 4817,
      "simple": 4818,
      "##ba": 4819,
      "Coun": 4820,
      "IM": 4821,
      "Society": 4822,
      "##ordance": 4823,
      "emb": 4824,
      "la": 4825,
      "biop": 4826,
      "##known": 4827,
      "##A1": 4828,
      "Post": 4829,
      "trigg": 4830,
      "commonly": 4831,
      "achieve": 4832,
      "pneum": 4833,
      "grad": 4834,
      "##tious": 4835,
      "autom": 4836,
      "hab": 4837,
      "##LD": 4838,
      "##oxic": 4839,
      "existing": 4840,
      "210": 4841,
      "IFN": 4842,
      "motif": 4843,
      "Out": 4844,
      "Therm": 4845,
      "Pharm": 4846,
      "repeated": 4847,
      "##acement": 4848,
      "##O3": 4849,
      "Quan": 4850,
      "Und": 4851,
      "financial": 4852,
      "enter": 4853,
      "Jan": 4854,
      "Click": 4855,
      "##IM": 4856,
      "rank": 4857,
      "detailed": 4858,
      "melan": 4859,
      "tend": 4860,
      "##OM": 4861,
      "hydrogen": 4862,
      "##Figure": 4863,
      "peripheral": 4864,
      "1993": 4865,
      "##gricult": 4866,
      "Lond": 4867,
      "poll": 4868,
      "##enge": 4869,
      "##ervision": 4870,
      "##ocation": 4871,
      "map": 4872,
      "expressing": 4873,
      "option": 4874,
      "],": 4875,
      "commerc": 4876,
      "##uctions": 4877,
      "##heum": 4878,
      "##itative": 4879,
      "AG": 4880,
      "##chem": 4881,
      "##mark": 4882,
      "ROS": 4883,
      "##OP": 4884,
      "depth": 4885,
      "recognition": 4886,
      "##istent": 4887,
      "throughout": 4888,
      "characterization": 4889,
      "Arab": 4890,
      "##ocr": 4891,
      "##200": 4892,
      "mixture": 4893,
      "intracellular": 4894,
      "si": 4895,
      "smaller": 4896,
      "plate": 4897,
      "thickness": 4898,
      "hyd": 4899,
      "##oli": 4900,
      "thereby": 4901,
      "polymorph": 4902,
      "insights": 4903,
      "Blood": 4904,
      "012": 4905,
      "##abb": 4906,
      "LM": 4907,
      "communication": 4908,
      "diameter": 4909,
      "compr": 4910,
      "##incip": 4911,
      "##ergic": 4912,
      "##ylation": 4913,
      "issues": 4914,
      "Smith": 4915,
      "informed": 4916,
      "working": 4917,
      "perception": 4918,
      "##ippocamp": 4919,
      "Press": 4920,
      "Article": 4921,
      "Arch": 4922,
      "College": 4923,
      "cytokines": 4924,
      "Assess": 4925,
      "Laboratory": 4926,
      "##genic": 4927,
      "Comparison": 4928,
      "correct": 4929,
      "Conclusions": 4930,
      "##estingly": 4931,
      "##ifug": 4932,
      "IgG": 4933,
      "##att": 4934,
      "gran": 4935,
      "##LS": 4936,
      "LA": 4937,
      "May": 4938,
      "implications": 4939,
      "behaviour": 4940,
      "##enza": 4941,
      "024": 4942,
      "H3": 4943,
      "AJ": 4944,
      "perf": 4945,
      "Back": 4946,
      "strongly": 4947,
      "##tration": 4948,
      "CO2": 4949,
      "widely": 4950,
      "joint": 4951,
      "Springer": 4952,
      "##ealing": 4953,
      "late": 4954,
      "##ersion": 4955,
      "113": 4956,
      "Qual": 4957,
      "hypertension": 4958,
      "close": 4959,
      "Ref": 4960,
      "DP": 4961,
      "force": 4962,
      "015": 4963,
      "minutes": 4964,
      "contributed": 4965,
      "##oprotein": 4966,
      "metastasis": 4967,
      "PK": 4968,
      "Ho": 4969,
      "GR": 4970,
      "##timicrobial": 4971,
      "HB": 4972,
      "##avel": 4973,
      "middle": 4974,
      "som": 4975,
      "##lands": 4976,
      "HT": 4977,
      "007": 4978,
      "DH": 4979,
      "##ocl": 4980,
      "ca": 4981,
      "##iton": 4982,
      "uptake": 4983,
      "##acchar": 4984,
      "observation": 4985,
      "ple": 4986,
      "Studies": 4987,
      "Su": 4988,
      "Scientific": 4989,
      "##ocyt": 4990,
      "diagnosed": 4991,
      "restric": 4992,
      "Identif": 4993,
      "Alz": 4994,
      "minim": 4995,
      "involving": 4996,
      "exhibit": 4997,
      "128": 4998,
      "##iform": 4999,
      "##went": 5000,
      "Ba": 5001,
      "adher": 5002,
      "methylation": 5003,
      "liquid": 5004,
      "neuronal": 5005,
      "satis": 5006,
      "FD": 5007,
      "Fac": 5008,
      "his": 5009,
      "##enari": 5010,
      "##itiz": 5011,
      "questionnaire": 5012,
      "conventional": 5013,
      "##utroph": 5014,
      "##eme": 5015,
      "Sel": 5016,
      "Similarly": 5017,
      "##istance": 5018,
      "cancers": 5019,
      "licence": 5020,
      "intern": 5021,
      "Prim": 5022,
      "variability": 5023,
      "comparing": 5024,
      "##ifications": 5025,
      "Ti": 5026,
      "tel": 5027,
      "channel": 5028,
      "lay": 5029,
      "aspects": 5030,
      "fish": 5031,
      "includes": 5032,
      "250": 5033,
      "burden": 5034,
      "become": 5035,
      "sodium": 5036,
      "##tially": 5037,
      "molecule": 5038,
      "movement": 5039,
      "You": 5040,
      "height": 5041,
      "funding": 5042,
      "##ibrary": 5043,
      "Diagn": 5044,
      "GM": 5045,
      "requires": 5046,
      "##NP": 5047,
      "##cal": 5048,
      "##ortic": 5049,
      "olig": 5050,
      "011": 5051,
      "##aptic": 5052,
      "##ills": 5053,
      "123": 5054,
      "Expression": 5055,
      "microbiota": 5056,
      "stained": 5057,
      "org": 5058,
      "medic": 5059,
      "researchers": 5060,
      "Genome": 5061,
      "mol": 5062,
      "prognosis": 5063,
      "differential": 5064,
      "##tility": 5065,
      "fav": 5066,
      "orient": 5067,
      "marked": 5068,
      "curation": 5069,
      "Jiang": 5070,
      "116": 5071,
      "simulation": 5072,
      "benefits": 5073,
      "##ogens": 5074,
      "language": 5075,
      "##oinformatics": 5076,
      "minimal": 5077,
      "Hist": 5078,
      "transcriptional": 5079,
      "Bur": 5080,
      "coding": 5081,
      "usually": 5082,
      "extracellular": 5083,
      "Aut": 5084,
      "Ste": 5085,
      "##rig": 5086,
      "Interestingly": 5087,
      "BP": 5088,
      "suit": 5089,
      "oil": 5090,
      "allows": 5091,
      "extent": 5092,
      "clim": 5093,
      "##eletal": 5094,
      "##ette": 5095,
      "112": 5096,
      "invasive": 5097,
      "RR": 5098,
      "##ensus": 5099,
      "Key": 5100,
      "unrestricted": 5101,
      "111": 5102,
      "##oo": 5103,
      "1H": 5104,
      "cultures": 5105,
      "##ral": 5106,
      "##Fs": 5107,
      "##BD": 5108,
      "Despite": 5109,
      "washed": 5110,
      "involvement": 5111,
      "Infect": 5112,
      "Evalu": 5113,
      "##agon": 5114,
      "Sl": 5115,
      "##amide": 5116,
      "trend": 5117,
      "214": 5118,
      "occurred": 5119,
      "subject": 5120,
      "Resp": 5121,
      "s12": 5122,
      "artery": 5123,
      "mil": 5124,
      "onc": 5125,
      "Biotechn": 5126,
      "##ureus": 5127,
      "text": 5128,
      "formed": 5129,
      "##uls": 5130,
      "N1": 5131,
      "utilized": 5132,
      "1992": 5133,
      "Bel": 5134,
      "toxicity": 5135,
      "competing": 5136,
      "device": 5137,
      "observations": 5138,
      "nor": 5139,
      "lact": 5140,
      "reconstr": 5141,
      "Sant": 5142,
      "antioxidant": 5143,
      "traditional": 5144,
      "Diabetes": 5145,
      "spectra": 5146,
      "angle": 5147,
      "own": 5148,
      "Sever": 5149,
      "families": 5150,
      "maternal": 5151,
      "industr": 5152,
      "##iller": 5153,
      "##cents": 5154,
      "Alzhe": 5155,
      "statement": 5156,
      "bind": 5157,
      "217": 5158,
      "##trac": 5159,
      "assembly": 5160,
      "box": 5161,
      "114": 5162,
      "Overall": 5163,
      "curves": 5164,
      "##yan": 5165,
      "vess": 5166,
      "CK": 5167,
      "013": 5168,
      "remaining": 5169,
      "compare": 5170,
      "Ver": 5171,
      "##ectric": 5172,
      "##inations": 5173,
      "-/-": 5174,
      "##resent": 5175,
      "##ena": 5176,
      "##ways": 5177,
      "Imp": 5178,
      "##hal": 5179,
      "variant": 5180,
      "now": 5181,
      "##ectious": 5182,
      "BL": 5183,
      "rib": 5184,
      "##uary": 5185,
      "Project": 5186,
      "mild": 5187,
      "settings": 5188,
      "##hydro": 5189,
      "Ul": 5190,
      "thermal": 5191,
      "su": 5192,
      "##let": 5193,
      "organic": 5194,
      "science": 5195,
      "costs": 5196,
      "referred": 5197,
      "effectively": 5198,
      "occurs": 5199,
      "##ococcus": 5200,
      "NK": 5201,
      "pairs": 5202,
      "categories": 5203,
      "national": 5204,
      "##opathy": 5205,
      "127": 5206,
      "Lip": 5207,
      "details": 5208,
      "Most": 5209,
      "SV": 5210,
      "##TS": 5211,
      "##ister": 5212,
      "##ads": 5213,
      "##IG": 5214,
      "primarily": 5215,
      "replication": 5216,
      "180": 5217,
      "1990": 5218,
      "##portun": 5219,
      "GL": 5220,
      "CD8": 5221,
      "##ola": 5222,
      "programm": 5223,
      "OS": 5224,
      "comparisons": 5225,
      "refer": 5226,
      "posterior": 5227,
      "done": 5228,
      "Bios": 5229,
      "##umar": 5230,
      "##ultaneous": 5231,
      "output": 5232,
      "##down": 5233,
      "labeled": 5234,
      "##ensis": 5235,
      "constit": 5236,
      "North": 5237,
      "tree": 5238,
      "##ophagy": 5239,
      "008": 5240,
      "Ethics": 5241,
      "121": 5242,
      "inclusion": 5243,
      "##oper": 5244,
      "C7": 5245,
      "Type": 5246,
      "Fact": 5247,
      "##OH": 5248,
      "morphology": 5249,
      "bott": 5250,
      "arrow": 5251,
      "properly": 5252,
      "Cyt": 5253,
      "RM": 5254,
      "yet": 5255,
      "malaria": 5256,
      "predictive": 5257,
      "##emp": 5258,
      "Ah": 5259,
      "manufactur": 5260,
      "figure": 5261,
      "Cryst": 5262,
      "cholesterol": 5263,
      "Meas": 5264,
      "Psychiatry": 5265,
      "MG": 5266,
      "JP": 5267,
      "Zn": 5268,
      "phosphate": 5269,
      "classified": 5270,
      "##crim": 5271,
      "occurrence": 5272,
      "issue": 5273,
      "##obic": 5274,
      "inser": 5275,
      "representative": 5276,
      "frequently": 5277,
      "##oxide": 5278,
      "hippocamp": 5279,
      "dimensional": 5280,
      "shape": 5281,
      "SF": 5282,
      "##icts": 5283,
      "##ria": 5284,
      "permitted": 5285,
      "##umor": 5286,
      "IN": 5287,
      "track": 5288,
      "Then": 5289,
      "medicine": 5290,
      "Prot": 5291,
      "##ested": 5292,
      "incubation": 5293,
      "minimum": 5294,
      "eye": 5295,
      "vaccination": 5296,
      "remain": 5297,
      "put": 5298,
      "ir": 5299,
      "complexes": 5300,
      "Follow": 5301,
      "Univers": 5302,
      "TE": 5303,
      "Mechan": 5304,
      "##za": 5305,
      "node": 5306,
      "fusion": 5307,
      "Nor": 5308,
      "fibrobl": 5309,
      "##yle": 5310,
      "posi": 5311,
      "##war": 5312,
      "ventr": 5313,
      "##PK": 5314,
      "emph": 5315,
      "slightly": 5316,
      "Statement": 5317,
      "##ump": 5318,
      "Sing": 5319,
      "##rology": 5320,
      "##enk": 5321,
      "##umab": 5322,
      "wound": 5323,
      "microscopy": 5324,
      "Bacter": 5325,
      "theory": 5326,
      "generate": 5327,
      "##iness": 5328,
      "metabolites": 5329,
      "explore": 5330,
      "conserved": 5331,
      "Green": 5332,
      "economic": 5333,
      "biomarkers": 5334,
      "##ectomy": 5335,
      "comput": 5336,
      "1b": 5337,
      "aging": 5338,
      "##plicated": 5339,
      "##gu": 5340,
      "##habil": 5341,
      "hepat": 5342,
      "Cho": 5343,
      "income": 5344,
      "Han": 5345,
      "contain": 5346,
      "supporting": 5347,
      "##ament": 5348,
      "element": 5349,
      "Africa": 5350,
      "##IL": 5351,
      "coronary": 5352,
      "124": 5353,
      "mutants": 5354,
      "219": 5355,
      "##US": 5356,
      "##cler": 5357,
      "##itten": 5358,
      "promotes": 5359,
      "induces": 5360,
      "scenari": 5361,
      "##kal": 5362,
      "centrifug": 5363,
      "rest": 5364,
      "215": 5365,
      "Fer": 5366,
      "##ply": 5367,
      "progress": 5368,
      "##iatr": 5369,
      "C8": 5370,
      "DD": 5371,
      "##oni": 5372,
      "America": 5373,
      "##rep": 5374,
      "adaptation": 5375,
      "challenge": 5376,
      "Committee": 5377,
      "FL": 5378,
      "plays": 5379,
      "Funding": 5380,
      "divided": 5381,
      "##ellow": 5382,
      "Hum": 5383,
      "units": 5384,
      "##overed": 5385,
      "PV": 5386,
      "prin": 5387,
      "WHO": 5388,
      "Fisher": 5389,
      "How": 5390,
      "interv": 5391,
      "##ready": 5392,
      "##ester": 5393,
      "##TP": 5394,
      "au": 5395,
      "Te": 5396,
      "ND": 5397,
      "myel": 5398,
      "anterior": 5399,
      "filter": 5400,
      "London": 5401,
      "participant": 5402,
      "reverse": 5403,
      "except": 5404,
      "typically": 5405,
      "##urrence": 5406,
      "improving": 5407,
      "Global": 5408,
      "dele": 5409,
      "subun": 5410,
      "seven": 5411,
      "##itzer": 5412,
      "predom": 5413,
      "S3": 5414,
      "##ounts": 5415,
      "ves": 5416,
      "almost": 5417,
      "##110": 5418,
      "wave": 5419,
      "##otrop": 5420,
      "Social": 5421,
      "earl": 5422,
      "face": 5423,
      "OH": 5424,
      "##ender": 5425,
      "Pos": 5426,
      "##faces": 5427,
      "begin": 5428,
      "nodes": 5429,
      "##orage": 5430,
      "Bec": 5431,
      "##pose": 5432,
      "variety": 5433,
      "peptides": 5434,
      "Therap": 5435,
      "alb": 5436,
      "buil": 5437,
      "Kar": 5438,
      "accurate": 5439,
      "agreement": 5440,
      "myocard": 5441,
      "RF": 5442,
      "##position": 5443,
      "dop": 5444,
      "Pop": 5445,
      "EP": 5446,
      "Sha": 5447,
      "Another": 5448,
      "iso": 5449,
      "##tenu": 5450,
      "ads": 5451,
      "instructions": 5452,
      "PG": 5453,
      "steps": 5454,
      "Sigma": 5455,
      "deriv": 5456,
      "already": 5457,
      "entire": 5458,
      "##emiology": 5459,
      "laser": 5460,
      "digital": 5461,
      "displayed": 5462,
      "Heart": 5463,
      "relation": 5464,
      "proj": 5465,
      "##anth": 5466,
      "##ima": 5467,
      "122": 5468,
      "Prov": 5469,
      "##tead": 5470,
      ".\"": 5471,
      "list": 5472,
      "unknown": 5473,
      "optical": 5474,
      "NO": 5475,
      "N2": 5476,
      "##icles": 5477,
      "##itudinal": 5478,
      "rare": 5479,
      "Alzheimer": 5480,
      "gradi": 5481,
      "interpretation": 5482,
      "ligand": 5483,
      "Nov": 5484,
      "traits": 5485,
      "Time": 5486,
      "susp": 5487,
      "160": 5488,
      "129": 5489,
      "accessed": 5490,
      "currently": 5491,
      "140": 5492,
      "##izations": 5493,
      "allowed": 5494,
      "Mi": 5495,
      "##alia": 5496,
      "##immun": 5497,
      "normalized": 5498,
      "##osh": 5499,
      "fiber": 5500,
      "##eman": 5501,
      "Experimental": 5502,
      "##abilities": 5503,
      "prospective": 5504,
      "JL": 5505,
      "inhibitory": 5506,
      "##osin": 5507,
      "##ado": 5508,
      "##BI": 5509,
      "variations": 5510,
      "##raft": 5511,
      "methodology": 5512,
      "nitrogen": 5513,
      "Lanc": 5514,
      "attach": 5515,
      "mentioned": 5516,
      "##illus": 5517,
      "##ala": 5518,
      "##inking": 5519,
      "C9": 5520,
      "integrated": 5521,
      "India": 5522,
      "##imm": 5523,
      "diabetic": 5524,
      "##activity": 5525,
      "Circ": 5526,
      "Dem": 5527,
      "Equ": 5528,
      "spl": 5529,
      "sufficient": 5530,
      "##mic": 5531,
      "eight": 5532,
      "NI": 5533,
      "behavioral": 5534,
      "##arch": 5535,
      "count": 5536,
      "actin": 5537,
      "sectional": 5538,
      "SNPs": 5539,
      "team": 5540,
      "summar": 5541,
      "York": 5542,
      "reviewed": 5543,
      "##eles": 5544,
      "bars": 5545,
      "##P1": 5546,
      "fibrosis": 5547,
      "communities": 5548,
      "##TM": 5549,
      "selective": 5550,
      "choice": 5551,
      "UV": 5552,
      "Risk": 5553,
      "accordance": 5554,
      "Ta": 5555,
      "odds": 5556,
      "loop": 5557,
      "plastic": 5558,
      "##sen": 5559,
      "Ru": 5560,
      "##alc": 5561,
      "prostate": 5562,
      "accel": 5563,
      "##oglob": 5564,
      "far": 5565,
      "opportun": 5566,
      "##).": 5567,
      "tom": 5568,
      "ultras": 5569,
      "##aling": 5570,
      "##version": 5571,
      "cytotox": 5572,
      "adop": 5573,
      "mis": 5574,
      "elim": 5575,
      "sph": 5576,
      "##utive": 5577,
      "Rod": 5578,
      "##130": 5579,
      "administered": 5580,
      "##ofil": 5581,
      "infil": 5582,
      "##asons": 5583,
      "220": 5584,
      "Tur": 5585,
      "balance": 5586,
      "benefit": 5587,
      "##umb": 5588,
      "Tak": 5589,
      "##erson": 5590,
      "prognostic": 5591,
      "heterogeneity": 5592,
      "IS": 5593,
      "noise": 5594,
      "artif": 5595,
      "claim": 5596,
      "T1": 5597,
      "counter": 5598,
      "appar": 5599,
      "##ectin": 5600,
      "localization": 5601,
      "Mel": 5602,
      "auto": 5603,
      "secretion": 5604,
      "##allel": 5605,
      "Acknowledg": 5606,
      "despite": 5607,
      "applicable": 5608,
      "##fs": 5609,
      "acquired": 5610,
      "norm": 5611,
      "wind": 5612,
      "upd": 5613,
      "establish": 5614,
      "##unn": 5615,
      "identi": 5616,
      "enriched": 5617,
      "\",": 5618,
      "summary": 5619,
      "cul": 5620,
      "experienced": 5621,
      "service": 5622,
      "genotype": 5623,
      "take": 5624,
      "ranging": 5625,
      "TGF": 5626,
      "Shi": 5627,
      "S0": 5628,
      "Canada": 5629,
      "##elihood": 5630,
      "nerve": 5631,
      "##ky": 5632,
      "attributed": 5633,
      "psychological": 5634,
      "solutions": 5635,
      "Case": 5636,
      "reflect": 5637,
      "marg": 5638,
      "Rad": 5639,
      "##ards": 5640,
      "let": 5641,
      "pyr": 5642,
      "Participants": 5643,
      "LS": 5644,
      "sizes": 5645,
      "Serv": 5646,
      "uns": 5647,
      "organization": 5648,
      "gain": 5649,
      "regulate": 5650,
      "Cas": 5651,
      "policy": 5652,
      "155": 5653,
      "MF": 5654,
      "definition": 5655,
      "manufacturer": 5656,
      "##lear": 5657,
      "invasion": 5658,
      "adolescents": 5659,
      "dark": 5660,
      "give": 5661,
      "##onucle": 5662,
      "##omb": 5663,
      "perceived": 5664,
      "programs": 5665,
      "##ontal": 5666,
      "Braz": 5667,
      "009": 5668,
      "occup": 5669,
      "commercial": 5670,
      "Coh": 5671,
      "##ze": 5672,
      "Ro": 5673,
      "intra": 5674,
      "stimuli": 5675,
      "satisf": 5676,
      "correlations": 5677,
      "##unc": 5678,
      "##ashi": 5679,
      "spread": 5680,
      "practices": 5681,
      "##pan": 5682,
      "branch": 5683,
      "regulates": 5684,
      "##illary": 5685,
      "objective": 5686,
      "sexual": 5687,
      "coverage": 5688,
      "Ped": 5689,
      "editor": 5690,
      "remained": 5691,
      "rou": 5692,
      "##K1": 5693,
      "driven": 5694,
      "explained": 5695,
      "explain": 5696,
      "##erb": 5697,
      "staff": 5698,
      "conjug": 5699,
      "O2": 5700,
      "reporting": 5701,
      "enrichment": 5702,
      "##phal": 5703,
      "C10": 5704,
      "##),": 5705,
      "##luores": 5706,
      "subgroup": 5707,
      "comparable": 5708,
      "examine": 5709,
      "Patient": 5710,
      "##cles": 5711,
      "doses": 5712,
      "##aceu": 5713,
      "##ensions": 5714,
      "discrim": 5715,
      "behaviors": 5716,
      "promoting": 5717,
      "urban": 5718,
      "##ercul": 5719,
      "allele": 5720,
      "break": 5721,
      "integration": 5722,
      "Environment": 5723,
      "recruit": 5724,
      "ant": 5725,
      "probe": 5726,
      "Plasm": 5727,
      "##NC": 5728,
      "General": 5729,
      "cortical": 5730,
      "protection": 5731,
      "EE": 5732,
      "##inus": 5733,
      "##biqu": 5734,
      "1177": 5735,
      "excess": 5736,
      "promising": 5737,
      "Au": 5738,
      "plates": 5739,
      "Lett": 5740,
      "tit": 5741,
      "reactive": 5742,
      "reson": 5743,
      ",\"": 5744,
      "machine": 5745,
      "fron": 5746,
      "##icul": 5747,
      "valu": 5748,
      "instance": 5749,
      "##ervical": 5750,
      "hemat": 5751,
      "Respons": 5752,
      "##onn": 5753,
      "copy": 5754,
      "ratios": 5755,
      "Bu": 5756,
      "##ozyg": 5757,
      "##ami": 5758,
      "Gal": 5759,
      "p53": 5760,
      "ask": 5761,
      "##zi": 5762,
      "Ther": 5763,
      "statistics": 5764,
      "LV": 5765,
      "##PR": 5766,
      "##ocrin": 5767,
      "emotional": 5768,
      "maps": 5769,
      "manner": 5770,
      "separate": 5771,
      "Previous": 5772,
      "bil": 5773,
      "recommended": 5774,
      "Lancet": 5775,
      "ra": 5776,
      "##Is": 5777,
      "alterations": 5778,
      "##ectors": 5779,
      "Italy": 5780,
      "##hen": 5781,
      "illness": 5782,
      "sat": 5783,
      "otherwise": 5784,
      "pancreatic": 5785,
      "princip": 5786,
      "suitable": 5787,
      "Ca2": 5788,
      "specimens": 5789,
      "mapping": 5790,
      "##va": 5791,
      "carri": 5792,
      "approval": 5793,
      "workers": 5794,
      "attenu": 5795,
      "algorithms": 5796,
      "respect": 5797,
      "conv": 5798,
      "Mich": 5799,
      "cycles": 5800,
      "impairment": 5801,
      "Psychol": 5802,
      "thromb": 5803,
      "barrier": 5804,
      "##eneration": 5805,
      "parents": 5806,
      "SW": 5807,
      "Number": 5808,
      "##PL": 5809,
      "partial": 5810,
      "agent": 5811,
      "independ": 5812,
      "math": 5813,
      "complement": 5814,
      "tolerance": 5815,
      "',": 5816,
      "neutroph": 5817,
      "maintained": 5818,
      "appears": 5819,
      "removal": 5820,
      "Pot": 5821,
      "Background": 5822,
      "##_Table": 5823,
      "##T1": 5824,
      "Program": 5825,
      "immunity": 5826,
      "##enchym": 5827,
      "##tingu": 5828,
      "CX": 5829,
      "considering": 5830,
      "viruses": 5831,
      "TS": 5832,
      "clearly": 5833,
      "Kore": 5834,
      "Chr": 5835,
      "leaf": 5836,
      "Ben": 5837,
      "##rocytes": 5838,
      "clinic": 5839,
      "JS": 5840,
      "##ermat": 5841,
      "Gh": 5842,
      "##140": 5843,
      "little": 5844,
      "neigh": 5845,
      "Copyright": 5846,
      "transpor": 5847,
      "Cd": 5848,
      "stabil": 5849,
      "Metabol": 5850,
      "##ivalent": 5851,
      "##ocar": 5852,
      "##otes": 5853,
      "susceptibility": 5854,
      "cod": 5855,
      "Vol": 5856,
      "Switzer": 5857,
      "##itect": 5858,
      "devices": 5859,
      "Sequ": 5860,
      "##TL": 5861,
      "Mass": 5862,
      "Beh": 5863,
      "##atus": 5864,
      "##oon": 5865,
      "##itors": 5866,
      "computed": 5867,
      "cleav": 5868,
      "Mic": 5869,
      "volt": 5870,
      "##ares": 5871,
      "encoding": 5872,
      "145": 5873,
      "simultaneous": 5874,
      "Several": 5875,
      "218": 5876,
      "##sw": 5877,
      "LPS": 5878,
      "Switzerland": 5879,
      "170": 5880,
      "##idine": 5881,
      "intervals": 5882,
      "protective": 5883,
      "CG": 5884,
      "Mark": 5885,
      "##isions": 5886,
      "substantial": 5887,
      "vul": 5888,
      "Soft": 5889,
      "135": 5890,
      "Given": 5891,
      "Bro": 5892,
      "Four": 5893,
      "possibility": 5894,
      "adhesion": 5895,
      "minor": 5896,
      "Ga": 5897,
      "163": 5898,
      "White": 5899,
      "##ynamic": 5900,
      "##oscler": 5901,
      "collagen": 5902,
      "called": 5903,
      "asym": 5904,
      "Bal": 5905,
      "##alling": 5906,
      "2D": 5907,
      "discussed": 5908,
      "downreg": 5909,
      "CY": 5910,
      "##itus": 5911,
      "##HD": 5912,
      "IQ": 5913,
      "Natural": 5914,
      "regular": 5915,
      "pseud": 5916,
      "introduced": 5917,
      "Guo": 5918,
      "##cripts": 5919,
      "receiving": 5920,
      "Predic": 5921,
      "slow": 5922,
      "##itory": 5923,
      "estimation": 5924,
      "Incre": 5925,
      "qualitative": 5926,
      "##wan": 5927,
      "earlier": 5928,
      "primers": 5929,
      "errors": 5930,
      "##EEE": 5931,
      "Basel": 5932,
      "channels": 5933,
      "reads": 5934,
      "Evaluation": 5935,
      "King": 5936,
      "##rogen": 5937,
      "##ips": 5938,
      "tract": 5939,
      "Conclusion": 5940,
      "grown": 5941,
      "absorption": 5942,
      "##rs": 5943,
      "Mg": 5944,
      "##ners": 5945,
      "shift": 5946,
      "medication": 5947,
      "underwent": 5948,
      "Three": 5949,
      "basal": 5950,
      "correction": 5951,
      "##eget": 5952,
      "start": 5953,
      "plots": 5954,
      "segment": 5955,
      "##asting": 5956,
      "##HA": 5957,
      "IEEE": 5958,
      "gastric": 5959,
      "211": 5960,
      "polyp": 5961,
      "cDNA": 5962,
      "##come": 5963,
      "##ologous": 5964,
      "1991": 5965,
      "fill": 5966,
      "true": 5967,
      "regulating": 5968,
      "vel": 5969,
      "experiences": 5970,
      "DF": 5971,
      "##wide": 5972,
      "pn": 5973,
      "AID": 5974,
      "deliver": 5975,
      "cytokine": 5976,
      "copyright": 5977,
      "users": 5978,
      "##aceae": 5979,
      "##Es": 5980,
      "##entia": 5981,
      "genomes": 5982,
      "Franc": 5983,
      "Bay": 5984,
      "deficiency": 5985,
      "##aine": 5986,
      "##osk": 5987,
      "lowest": 5988,
      "characteristic": 5989,
      "##osity": 5990,
      "articles": 5991,
      "##ooth": 5992,
      "##okine": 5993,
      "colorectal": 5994,
      "aimed": 5995,
      "oxide": 5996,
      "Use": 5997,
      "ethn": 5998,
      "expect": 5999,
      "212": 6000,
      "affects": 6001,
      "Australia": 6002,
      "TF": 6003,
      "plan": 6004,
      "nucleotide": 6005,
      "reliability": 6006,
      "electronic": 6007,
      "altered": 6008,
      "Fem": 6009,
      "His": 6010,
      "Tri": 6011,
      "##itals": 6012,
      "Class": 6013,
      "Formal": 6014,
      "Because": 6015,
      "feedback": 6016,
      "lesion": 6017,
      "##ora": 6018,
      "App": 6019,
      "matter": 6020,
      "##idal": 6021,
      "##ryth": 6022,
      "storage": 6023,
      "##BL": 6024,
      "presentation": 6025,
      "##NS": 6026,
      "##ernand": 6027,
      "##ostasis": 6028,
      "Comput": 6029,
      "EA": 6030,
      "##F1": 6031,
      "##rog": 6032,
      "phenomen": 6033,
      "perspective": 6034,
      "cytoplasm": 6035,
      "##ypt": 6036,
      "##aa": 6037,
      "##asia": 6038,
      "##tition": 6039,
      "reduces": 6040,
      "-(": 6041,
      "germ": 6042,
      "kB": 6043,
      "outs": 6044,
      "expans": 6045,
      "1128": 6046,
      "tasks": 6047,
      "Hol": 6048,
      "##ibration": 6049,
      "antimicrobial": 6050,
      "##RS": 6051,
      "mus": 6052,
      "modification": 6053,
      "##orac": 6054,
      "Inhib": 6055,
      "##iring": 6056,
      ")]": 6057,
      "fresh": 6058,
      "distingu": 6059,
      "SJ": 6060,
      "ethanol": 6061,
      "basic": 6062,
      "inoc": 6063,
      "missing": 6064,
      "harm": 6065,
      "completed": 6066,
      "##olute": 6067,
      "miRNA": 6068,
      "modeling": 6069,
      "infer": 6070,
      "147": 6071,
      "Validation": 6072,
      "membranes": 6073,
      "213": 6074,
      "scientific": 6075,
      "Gastro": 6076,
      "##dominal": 6077,
      "STAT": 6078,
      "typical": 6079,
      "influenced": 6080,
      "govern": 6081,
      "##eased": 6082,
      "##atib": 6083,
      "Centre": 6084,
      "gastro": 6085,
      "disch": 6086,
      "sti": 6087,
      "belong": 6088,
      "ground": 6089,
      "subsequently": 6090,
      "##ided": 6091,
      "veh": 6092,
      "superior": 6093,
      "stored": 6094,
      "pathogen": 6095,
      "once": 6096,
      "Go": 6097,
      "Mur": 6098,
      "transfected": 6099,
      "##N1": 6100,
      "Diseases": 6101,
      "adjust": 6102,
      "display": 6103,
      "DJ": 6104,
      "pathogenesis": 6105,
      "nar": 6106,
      "likelihood": 6107,
      "Academic": 6108,
      "##opsis": 6109,
      "just": 6110,
      "##tenance": 6111,
      "Sn": 6112,
      "##vey": 6113,
      "##roscopy": 6114,
      "plus": 6115,
      "BioMed": 6116,
      "##erculosis": 6117,
      "TG": 6118,
      "##ks": 6119,
      "hard": 6120,
      "SU": 6121,
      "solv": 6122,
      "##ernat": 6123,
      "Brazil": 6124,
      "C11": 6125,
      "RD": 6126,
      "yeast": 6127,
      "positively": 6128,
      "switch": 6129,
      "visit": 6130,
      "shap": 6131,
      "diag": 6132,
      "##oxia": 6133,
      "##omon": 6134,
      "Aff": 6135,
      "postoperative": 6136,
      "##urity": 6137,
      "175": 6138,
      "##eep": 6139,
      "closely": 6140,
      "subc": 6141,
      "NMR": 6142,
      "##treated": 6143,
      "positions": 6144,
      "RC": 6145,
      "##aker": 6146,
      "##ulty": 6147,
      "##ometer": 6148,
      "predominant": 6149,
      "similarity": 6150,
      "##thma": 6151,
      "transform": 6152,
      "Polym": 6153,
      "##ls": 6154,
      "Ku": 6155,
      "alignment": 6156,
      "Def": 6157,
      "flav": 6158,
      "Camp": 6159,
      "arm": 6160,
      "identity": 6161,
      "retin": 6162,
      "State": 6163,
      "viability": 6164,
      "Identification": 6165,
      "ovarian": 6166,
      "ve": 6167,
      "sn": 6168,
      "vitamin": 6169,
      "motion": 6170,
      "Work": 6171,
      "pneumonia": 6172,
      "fast": 6173,
      "##ille": 6174,
      "subjected": 6175,
      "nerv": 6176,
      "SI": 6177,
      "##gue": 6178,
      "##cape": 6179,
      "C12": 6180,
      "Cheng": 6181,
      "chosen": 6182,
      "##avirus": 6183,
      "##aka": 6184,
      "146": 6185,
      "##yes": 6186,
      "L1": 6187,
      "Tor": 6188,
      "##rea": 6189,
      "##eta": 6190,
      "##ropath": 6191,
      "country": 6192,
      "modul": 6193,
      "Confl": 6194,
      "ter": 6195,
      "Organization": 6196,
      "intell": 6197,
      "Disord": 6198,
      "identifying": 6199,
      "Never": 6200,
      "Visual": 6201,
      "Yan": 6202,
      "crystall": 6203,
      "inhibits": 6204,
      "##phth": 6205,
      "extracts": 6206,
      "##amily": 6207,
      "metastatic": 6208,
      "spinal": 6209,
      "##ehyd": 6210,
      "##vironments": 6211,
      "ray": 6212,
      "##point": 6213,
      "assigned": 6214,
      "##for": 6215,
      "##lo": 6216,
      "interface": 6217,
      "SK": 6218,
      "protocols": 6219,
      "##iction": 6220,
      "crystal": 6221,
      "fluor": 6222,
      "##itt": 6223,
      "ubiqu": 6224,
      "antibiotic": 6225,
      "micros": 6226,
      "multiv": 6227,
      "Elect": 6228,
      "cerebral": 6229,
      "recurrence": 6230,
      "##rological": 6231,
      "SNP": 6232,
      "m2": 6233,
      "reag": 6234,
      "layers": 6235,
      "househ": 6236,
      "spor": 6237,
      "##esthes": 6238,
      "##ifying": 6239,
      "##uchi": 6240,
      "shared": 6241,
      "##H2": 6242,
      "irradi": 6243,
      "Emerg": 6244,
      "##aper": 6245,
      "enhancing": 6246,
      "compl": 6247,
      "participate": 6248,
      "Max": 6249,
      "perme": 6250,
      "##GS": 6251,
      "concept": 6252,
      "LR": 6253,
      "metric": 6254,
      "nucleus": 6255,
      "Mil": 6256,
      "retrospective": 6257,
      "influenza": 6258,
      "purified": 6259,
      "reveals": 6260,
      "Chi": 6261,
      "##atif": 6262,
      "oc": 6263,
      "Animal": 6264,
      "Mem": 6265,
      "JR": 6266,
      "##ibly": 6267,
      "Qi": 6268,
      "cys": 6269,
      "Network": 6270,
      "Following": 6271,
      "1073": 6272,
      "##arth": 6273,
      "##theless": 6274,
      "##han": 6275,
      "...": 6276,
      "EB": 6277,
      "analysed": 6278,
      "##amic": 6279,
      "Rh": 6280,
      "residual": 6281,
      "##ione": 6282,
      "kine": 6283,
      "representation": 6284,
      "rural": 6285,
      "Jul": 6286,
      "affecting": 6287,
      "oxidation": 6288,
      "GD": 6289,
      "parallel": 6290,
      "explan": 6291,
      "##ublic": 6292,
      "Sex": 6293,
      "##ias": 6294,
      "leaves": 6295,
      "enrol": 6296,
      "350": 6297,
      "conclud": 6298,
      "##nee": 6299,
      "##eas": 6300,
      "Pharmacol": 6301,
      "##orrh": 6302,
      "TLR": 6303,
      "facilitate": 6304,
      "320": 6305,
      "Pub": 6306,
      "gli": 6307,
      "##PCR": 6308,
      "##illance": 6309,
      "revers": 6310,
      "Gao": 6311,
      "involves": 6312,
      "adequ": 6313,
      "sensors": 6314,
      "kit": 6315,
      "therapies": 6316,
      "myocardial": 6317,
      "Assessment": 6318,
      "Male": 6319,
      "Pal": 6320,
      "isolation": 6321,
      "African": 6322,
      "Har": 6323,
      "square": 6324,
      "Sk": 6325,
      "created": 6326,
      "Ham": 6327,
      "grant": 6328,
      "ten": 6329,
      "##oxyl": 6330,
      "SB": 6331,
      "##otypic": 6332,
      "BY": 6333,
      "Nak": 6334,
      "1136": 6335,
      "Yam": 6336,
      "##Ds": 6337,
      "JH": 6338,
      "dry": 6339,
      "category": 6340,
      "million": 6341,
      "yellow": 6342,
      "##oriz": 6343,
      "aud": 6344,
      "Endocrin": 6345,
      "vide": 6346,
      "030": 6347,
      "DO": 6348,
      "longitudinal": 6349,
      "##unct": 6350,
      "133": 6351,
      "##yond": 6352,
      "Mut": 6353,
      "##habilitation": 6354,
      "milk": 6355,
      "Zheng": 6356,
      "gap": 6357,
      "sharing": 6358,
      "impl": 6359,
      "##olip": 6360,
      "solely": 6361,
      "beyond": 6362,
      "310": 6363,
      "West": 6364,
      "##tract": 6365,
      "##rec": 6366,
      "biology": 6367,
      "package": 6368,
      "veloc": 6369,
      "hormone": 6370,
      "Oct": 6371,
      "extrem": 6372,
      "varying": 6373,
      "##alse": 6374,
      "Education": 6375,
      "##oming": 6376,
      "malignant": 6377,
      "growing": 6378,
      "gradient": 6379,
      "indicators": 6380,
      "Corresp": 6381,
      "##ela": 6382,
      "Hydro": 6383,
      "Ger": 6384,
      "drop": 6385,
      "habit": 6386,
      "##EA": 6387,
      "Subsequ": 6388,
      "thre": 6389,
      "validated": 6390,
      "exact": 6391,
      "##inn": 6392,
      "cervical": 6393,
      "Section": 6394,
      "##apse": 6395,
      "sed": 6396,
      "pathogens": 6397,
      "H1": 6398,
      "teach": 6399,
      "##eat": 6400,
      "ast": 6401,
      "clustering": 6402,
      "fed": 6403,
      "requirements": 6404,
      "##ceedings": 6405,
      "##oretical": 6406,
      "##hai": 6407,
      "exch": 6408,
      "##HC": 6409,
      "##hu": 6410,
      "temperatures": 6411,
      "impaired": 6412,
      "Brown": 6413,
      "##elium": 6414,
      "peaks": 6415,
      "JE": 6416,
      "Integr": 6417,
      "developmental": 6418,
      "environments": 6419,
      "simulations": 6420,
      "ps": 6421,
      "##K2": 6422,
      "climate": 6423,
      "Her": 6424,
      "plasmid": 6425,
      "##heumat": 6426,
      "##pected": 6427,
      "particle": 6428,
      "onto": 6429,
      "endogenous": 6430,
      "sum": 6431,
      "##adder": 6432,
      "reached": 6433,
      "Publisher": 6434,
      "Current": 6435,
      "wors": 6436,
      "code": 6437,
      "supernat": 6438,
      "tube": 6439,
      "indirect": 6440,
      "amplification": 6441,
      "stimulus": 6442,
      "ble": 6443,
      "##mer": 6444,
      "##ospitals": 6445,
      "initiation": 6446,
      "March": 6447,
      "diffusion": 6448,
      "179": 6449,
      "##unt": 6450,
      "cov": 6451,
      "defects": 6452,
      "seq": 6453,
      "Role": 6454,
      "cold": 6455,
      "Dat": 6456,
      "recruitment": 6457,
      "deletion": 6458,
      "depending": 6459,
      "spe": 6460,
      "maintenance": 6461,
      "beneficial": 6462,
      "valuable": 6463,
      "pack": 6464,
      "Prof": 6465,
      "##ifer": 6466,
      "FC": 6467,
      "##ogs": 6468,
      "purpose": 6469,
      "##apped": 6470,
      "Notably": 6471,
      "##abor": 6472,
      "FM": 6473,
      "Recent": 6474,
      "candidate": 6475,
      "anat": 6476,
      "##uments": 6477,
      "user": 6478,
      "miRNAs": 6479,
      "MN": 6480,
      "Ka": 6481,
      "jc": 6482,
      "##derly": 6483,
      "toxic": 6484,
      "Black": 6485,
      "##adian": 6486,
      "Chemical": 6487,
      "1a": 6488,
      "decline": 6489,
      "formal": 6490,
      "FT": 6491,
      "Gi": 6492,
      "##arcia": 6493,
      "Swed": 6494,
      "##ander": 6495,
      "Orth": 6496,
      "Engineering": 6497,
      "##oblast": 6498,
      "table": 6499,
      "PO": 6500,
      "JJ": 6501,
      "frequencies": 6502,
      "analyze": 6503,
      "credit": 6504,
      "##fort": 6505,
      "demographic": 6506,
      "extensive": 6507,
      "implemented": 6508,
      "But": 6509,
      "surround": 6510,
      "137": 6511,
      "downstream": 6512,
      "157": 6513,
      "KE": 6514,
      "risks": 6515,
      "participation": 6516,
      "differentially": 6517,
      "know": 6518,
      "Kit": 6519,
      "##abric": 6520,
      "explored": 6521,
      "complexity": 6522,
      "smooth": 6523,
      "Mu": 6524,
      "precurs": 6525,
      "##acco": 6526,
      "extended": 6527,
      "carry": 6528,
      "Surgery": 6529,
      "##ovirus": 6530,
      "##uous": 6531,
      "trained": 6532,
      "KO": 6533,
      "recommendations": 6534,
      "veget": 6535,
      "R2": 6536,
      "Ald": 6537,
      "pathological": 6538,
      "RJ": 6539,
      "expansion": 6540,
      "##ontaneous": 6541,
      "dend": 6542,
      "AH": 6543,
      "156": 6544,
      "##103": 6545,
      "SG": 6546,
      "bottom": 6547,
      "##rophic": 6548,
      "fig": 6549,
      "##acr": 6550,
      "describe": 6551,
      "Biomed": 6552,
      "conclusion": 6553,
      "har": 6554,
      "##org": 6555,
      "##idae": 6556,
      "##ogram": 6557,
      "decreases": 6558,
      "##max": 6559,
      "Behavi": 6560,
      "dors": 6561,
      "loading": 6562,
      "##da": 6563,
      "viol": 6564,
      "##eva": 6565,
      "adherence": 6566,
      "Mad": 6567,
      "##LE": 6568,
      "##aryng": 6569,
      "injected": 6570,
      "Garcia": 6571,
      "overexpression": 6572,
      "##aid": 6573,
      "exceed": 6574,
      "neon": 6575,
      "scan": 6576,
      "randomly": 6577,
      "amyl": 6578,
      "VEGF": 6579,
      "##acting": 6580,
      "Willi": 6581,
      "composite": 6582,
      "placebo": 6583,
      "##iance": 6584,
      "FR": 6585,
      "supplementary": 6586,
      "##rowth": 6587,
      "uncertain": 6588,
      "inhibited": 6589,
      "##yo": 6590,
      "technical": 6591,
      "farm": 6592,
      "splic": 6593,
      "##iff": 6594,
      "unl": 6595,
      "array": 6596,
      "Wei": 6597,
      "AUC": 6598,
      "zero": 6599,
      "##yte": 6600,
      "eryth": 6601,
      "voltage": 6602,
      "600": 6603,
      "165": 6604,
      "France": 6605,
      "Indeed": 6606,
      "##iaz": 6607,
      "##bell": 6608,
      "##igen": 6609,
      "##anded": 6610,
      "description": 6611,
      "Also": 6612,
      "Form": 6613,
      "Lo": 6614,
      "cis": 6615,
      "1126": 6616,
      "microgl": 6617,
      "determination": 6618,
      "prox": 6619,
      "forward": 6620,
      "UC": 6621,
      "##dis": 6622,
      "separated": 6623,
      "##theroscler": 6624,
      "transferred": 6625,
      "##ulatory": 6626,
      "Ill": 6627,
      "##erts": 6628,
      "##night": 6629,
      "##105": 6630,
      "Bon": 6631,
      "feeding": 6632,
      "Due": 6633,
      "##P2": 6634,
      "Cap": 6635,
      "assessing": 6636,
      "hepatic": 6637,
      "recombinant": 6638,
      "spectrom": 6639,
      "##ancies": 6640,
      "measuring": 6641,
      "capture": 6642,
      "bul": 6643,
      "whose": 6644,
      "preserv": 6645,
      "dual": 6646,
      "Proceedings": 6647,
      "completely": 6648,
      "Tra": 6649,
      "resource": 6650,
      "consensus": 6651,
      "136": 6652,
      "transformation": 6653,
      "socio": 6654,
      "##tivated": 6655,
      "131": 6656,
      "##IA": 6657,
      "ions": 6658,
      "Oral": 6659,
      "HPV": 6660,
      "177": 6661,
      "architect": 6662,
      "##pati": 6663,
      "##trial": 6664,
      "##brevi": 6665,
      "always": 6666,
      "Only": 6667,
      "Song": 6668,
      "constructed": 6669,
      "infants": 6670,
      "##etti": 6671,
      "190": 6672,
      "Process": 6673,
      "records": 6674,
      "Sym": 6675,
      "##Th": 6676,
      "written": 6677,
      "##amination": 6678,
      "purch": 6679,
      "##orter": 6680,
      "##time": 6681,
      "##icients": 6682,
      "Gon": 6683,
      "salt": 6684,
      "Electr": 6685,
      "taking": 6686,
      "stimulated": 6687,
      "institutional": 6688,
      "##ohist": 6689,
      "##ecutive": 6690,
      "##P3": 6691,
      "translation": 6692,
      "acad": 6693,
      "Myc": 6694,
      "Such": 6695,
      "Signific": 6696,
      "##phthalm": 6697,
      "reasons": 6698,
      "parts": 6699,
      "respective": 6700,
      "PET": 6701,
      "antibiotics": 6702,
      "Tang": 6703,
      "regim": 6704,
      "##onin": 6705,
      "Primary": 6706,
      "##illin": 6707,
      "trends": 6708,
      "##R1": 6709,
      "Moh": 6710,
      "##iae": 6711,
      "phenotypes": 6712,
      "TD": 6713,
      "equation": 6714,
      "##ehyde": 6715,
      "Standard": 6716,
      "##olysis": 6717,
      "affinity": 6718,
      "##rophy": 6719,
      "Alex": 6720,
      "153": 6721,
      "thyroid": 6722,
      "priv": 6723,
      "##ypes": 6724,
      "##L1": 6725,
      "advantage": 6726,
      "fetal": 6727,
      "primer": 6728,
      "neck": 6729,
      "biofil": 6730,
      "139": 6731,
      "##urine": 6732,
      "DG": 6733,
      "independently": 6734,
      "BF": 6735,
      "Appro": 6736,
      "##--": 6737,
      "transcripts": 6738,
      "hydrog": 6739,
      "periods": 6740,
      "138": 6741,
      "fragment": 6742,
      "0004": 6743,
      "recru": 6744,
      "Functional": 6745,
      "##erman": 6746,
      "##antly": 6747,
      "Neg": 6748,
      "##amber": 6749,
      "transplantation": 6750,
      "ELI": 6751,
      "regional": 6752,
      "##la": 6753,
      "classes": 6754,
      "##ional": 6755,
      "pnas": 6756,
      "##aspase": 6757,
      "autophagy": 6758,
      "Test": 6759,
      "##eno": 6760,
      "aver": 6761,
      "heav": 6762,
      "##oscopic": 6763,
      "walk": 6764,
      "optimization": 6765,
      "weighted": 6766,
      "##olin": 6767,
      "##rete": 6768,
      "##enia": 6769,
      "processed": 6770,
      "healing": 6771,
      "Prom": 6772,
      "discovery": 6773,
      "capt": 6774,
      "absolute": 6775,
      "C13": 6776,
      "TT": 6777,
      "Graph": 6778,
      "seems": 6779,
      "egg": 6780,
      "##intestinal": 6781,
      "##utaneous": 6782,
      "##itig": 6783,
      "attit": 6784,
      "##005": 6785,
      "##enchymal": 6786,
      "format": 6787,
      "##erse": 6788,
      "##acillus": 6789,
      "##anted": 6790,
      "Ke": 6791,
      "BS": 6792,
      "rabb": 6793,
      "GE": 6794,
      "cam": 6795,
      "CSF": 6796,
      "charge": 6797,
      "Nevertheless": 6798,
      "competi": 6799,
      "Phot": 6800,
      "DN": 6801,
      "Rich": 6802,
      "##ibri": 6803,
      "Mann": 6804,
      "pediatric": 6805,
      "Conc": 6806,
      "conflict": 6807,
      "Institution": 6808,
      "##ighting": 6809,
      "##uan": 6810,
      "dominant": 6811,
      "intermediate": 6812,
      "##yros": 6813,
      "132": 6814,
      "134": 6815,
      "-,": 6816,
      "ventricular": 6817,
      "Supervision": 6818,
      "##actic": 6819,
      "quantification": 6820,
      "Suppor": 6821,
      "recip": 6822,
      "latter": 6823,
      "Consequ": 6824,
      "cath": 6825,
      "##iph": 6826,
      "evolutionary": 6827,
      "ring": 6828,
      "glass": 6829,
      "emphas": 6830,
      "Aug": 6831,
      "176": 6832,
      "##aced": 6833,
      "##used": 6834,
      "feas": 6835,
      "##ophila": 6836,
      "Genes": 6837,
      "discussion": 6838,
      "embed": 6839,
      "026": 6840,
      "##igene": 6841,
      "185": 6842,
      "##idopsis": 6843,
      "143": 6844,
      "pip": 6845,
      "representing": 6846,
      "AE": 6847,
      "Fre": 6848,
      "Acids": 6849,
      "##amma": 6850,
      "coupled": 6851,
      "##ptosis": 6852,
      "Ur": 6853,
      "Lev": 6854,
      "##OT": 6855,
      "Thermo": 6856,
      "JD": 6857,
      "er": 6858,
      "quantified": 6859,
      "equivalent": 6860,
      "##olding": 6861,
      "##well": 6862,
      "##arities": 6863,
      "167": 6864,
      "attrib": 6865,
      "etc": 6866,
      "dementia": 6867,
      "##chron": 6868,
      "##luorescence": 6869,
      "##iel": 6870,
      "da": 6871,
      "##oxy": 6872,
      "##zen": 6873,
      "round": 6874,
      "##lar": 6875,
      "producing": 6876,
      "innov": 6877,
      "Trends": 6878,
      "antagon": 6879,
      "chromat": 6880,
      "Competing": 6881,
      "CRC": 6882,
      "fall": 6883,
      "radical": 6884,
      "hour": 6885,
      "##Ns": 6886,
      "modifications": 6887,
      "phylogenetic": 6888,
      "##inter": 6889,
      "myc": 6890,
      "successfully": 6891,
      "RL": 6892,
      "HLA": 6893,
      "cord": 6894,
      "##acet": 6895,
      "##plate": 6896,
      "##olytic": 6897,
      "prolong": 6898,
      "abdominal": 6899,
      "Abs": 6900,
      "technologies": 6901,
      "respondents": 6902,
      "##mail": 6903,
      "F2": 6904,
      "answ": 6905,
      "fibers": 6906,
      "1989": 6907,
      "PubMed": 6908,
      "presents": 6909,
      "coefficients": 6910,
      "supplemented": 6911,
      "##weight": 6912,
      "opin": 6913,
      "validity": 6914,
      "allowing": 6915,
      "Wat": 6916,
      "Genetic": 6917,
      "323": 6918,
      "numerous": 6919,
      "##owski": 6920,
      "dental": 6921,
      "What": 6922,
      "progen": 6923,
      "##sin": 6924,
      "film": 6925,
      "atoms": 6926,
      "resonance": 6927,
      "315": 6928,
      "##erated": 6929,
      "frequent": 6930,
      "Cat": 6931,
      "IQR": 6932,
      "##leuk": 6933,
      "158": 6934,
      "##istics": 6935,
      "look": 6936,
      "matched": 6937,
      "O1": 6938,
      "consequences": 6939,
      "microscope": 6940,
      "##luor": 6941,
      "meaning": 6942,
      "++": 6943,
      "iden": 6944,
      "discl": 6945,
      "EF": 6946,
      "##zo": 6947,
      "##rick": 6948,
      "##insic": 6949,
      "Arabidopsis": 6950,
      "blind": 6951,
      "member": 6952,
      "circum": 6953,
      "directed": 6954,
      "##opic": 6955,
      "Imaging": 6956,
      "##igible": 6957,
      "overnight": 6958,
      "Biological": 6959,
      "varied": 6960,
      "synthesized": 6961,
      "signs": 6962,
      "##ochemistry": 6963,
      "conversion": 6964,
      "precision": 6965,
      "Neurol": 6966,
      "Tem": 6967,
      "C14": 6968,
      "starting": 6969,
      "counts": 6970,
      "##asal": 6971,
      "NY": 6972,
      "159": 6973,
      "##ecal": 6974,
      "186": 6975,
      "Nether": 6976,
      "synaptic": 6977,
      "publications": 6978,
      "mT": 6979,
      "actual": 6980,
      "carcin": 6981,
      "##ona": 6982,
      "##acted": 6983,
      "loci": 6984,
      "##posite": 6985,
      "qPCR": 6986,
      "mail": 6987,
      "##Ms": 6988,
      "319": 6989,
      "elderly": 6990,
      "pen": 6991,
      "locations": 6992,
      ".);": 6993,
      "168": 6994,
      "RB": 6995,
      "hapl": 6996,
      "recording": 6997,
      "clinically": 6998,
      "##transfer": 6999,
      "Inn": 7000,
      "Impro": 7001,
      "##cribed": 7002,
      "##O4": 7003,
      "##avity": 7004,
      "##omm": 7005,
      "cer": 7006,
      "nM": 7007,
      "professionals": 7008,
      "##di": 7009,
      "reliable": 7010,
      "stre": 7011,
      "live": 7012,
      "negatively": 7013,
      "Quality": 7014,
      "##des": 7015,
      "peer": 7016,
      "Shang": 7017,
      "hydroph": 7018,
      "get": 7019,
      "Rem": 7020,
      "fruit": 7021,
      "Math": 7022,
      "thin": 7023,
      "absorb": 7024,
      "Netherlands": 7025,
      "saline": 7026,
      "##mediat": 7027,
      "CJ": 7028,
      "S4": 7029,
      "acs": 7030,
      "Multiple": 7031,
      "modulation": 7032,
      "##issions": 7033,
      "##inder": 7034,
      "anth": 7035,
      "Software": 7036,
      "##mediately": 7037,
      "fields": 7038,
      "fibroblasts": 7039,
      "Physical": 7040,
      "false": 7041,
      "genotypes": 7042,
      ")/": 7043,
      "instead": 7044,
      "prem": 7045,
      "##arin": 7046,
      "##aste": 7047,
      "assumption": 7048,
      "asthma": 7049,
      "##acent": 7050,
      "concerns": 7051,
      "##array": 7052,
      "##PC": 7053,
      "velocity": 7054,
      "Single": 7055,
      "outside": 7056,
      "##iger": 7057,
      "mov": 7058,
      "ELISA": 7059,
      "highlighted": 7060,
      "Mun": 7061,
      "sensory": 7062,
      "##Rs": 7063,
      "locus": 7064,
      "##oa": 7065,
      "rice": 7066,
      "##ernandez": 7067,
      "173": 7068,
      "synthetic": 7069,
      "twice": 7070,
      "property": 7071,
      "raw": 7072,
      "comparative": 7073,
      "shock": 7074,
      "impacts": 7075,
      "separation": 7076,
      "Female": 7077,
      "cir": 7078,
      "##ognition": 7079,
      "width": 7080,
      "169": 7081,
      "tumours": 7082,
      "##ued": 7083,
      "##valent": 7084,
      "pathology": 7085,
      "Hel": 7086,
      "parent": 7087,
      "##udes": 7088,
      "Berg": 7089,
      "Mit": 7090,
      "##anda": 7091,
      "Children": 7092,
      "##cil": 7093,
      "##ermal": 7094,
      "166": 7095,
      "Ple": 7096,
      "(>": 7097,
      "025": 7098,
      "enhances": 7099,
      "GW": 7100,
      "crop": 7101,
      "##activation": 7102,
      "317": 7103,
      "distributions": 7104,
      "upregulated": 7105,
      "fracture": 7106,
      "##earing": 7107,
      "ultrasound": 7108,
      "ii": 7109,
      "mostly": 7110,
      "homeostasis": 7111,
      "asc": 7112,
      "Diet": 7113,
      "item": 7114,
      "Energy": 7115,
      "amounts": 7116,
      "##EL": 7117,
      "agar": 7118,
      "Rodrig": 7119,
      "027": 7120,
      "EV": 7121,
      "accep": 7122,
      "tuberculosis": 7123,
      "##nc": 7124,
      "rapidly": 7125,
      "uniform": 7126,
      "morb": 7127,
      "Technol": 7128,
      "construct": 7129,
      "NT": 7130,
      "identical": 7131,
      "Europe": 7132,
      "delay": 7133,
      "computational": 7134,
      "MW": 7135,
      "aureus": 7136,
      "efforts": 7137,
      "Specifically": 7138,
      "Tiss": 7139,
      "Resources": 7140,
      "##ensities": 7141,
      "##ril": 7142,
      "##rot": 7143,
      "barriers": 7144,
      "##ellent": 7145,
      "PJ": 7146,
      "##ska": 7147,
      "Lear": 7148,
      "probably": 7149,
      "##rote": 7150,
      "international": 7151,
      "RG": 7152,
      "##yb": 7153,
      "Genetics": 7154,
      "hospitals": 7155,
      "amplitude": 7156,
      "Carb": 7157,
      "##ectively": 7158,
      "178": 7159,
      "Dros": 7160,
      "hold": 7161,
      "Syn": 7162,
      "##ticular": 7163,
      "comorb": 7164,
      "listed": 7165,
      "McC": 7166,
      "PB": 7167,
      "OD": 7168,
      "interact": 7169,
      "stratif": 7170,
      "electrode": 7171,
      "37degC": 7172,
      "Initi": 7173,
      "##atigue": 7174,
      "Image": 7175,
      "##water": 7176,
      "native": 7177,
      "174": 7178,
      "DT": 7179,
      "Pf": 7180,
      "AIDS": 7181,
      "connected": 7182,
      "deaths": 7183,
      "Ko": 7184,
      "##ritic": 7185,
      "##acial": 7186,
      "##oman": 7187,
      "316": 7188,
      "Sus": 7189,
      "admission": 7190,
      "Jones": 7191,
      "causing": 7192,
      "inters": 7193,
      "##gricultural": 7194,
      "knee": 7195,
      "1988": 7196,
      "##EF": 7197,
      "module": 7198,
      "144": 7199,
      "##ift": 7200,
      "Oh": 7201,
      "rod": 7202,
      "seek": 7203,
      "Bor": 7204,
      "morphological": 7205,
      "acetyl": 7206,
      "##rinary": 7207,
      "##urance": 7208,
      "##ucid": 7209,
      "##essions": 7210,
      "pathogenic": 7211,
      "NPs": 7212,
      "KM": 7213,
      "##mb": 7214,
      "biosynthesis": 7215,
      "reproductive": 7216,
      "##tual": 7217,
      "##iment": 7218,
      "utilization": 7219,
      "predicting": 7220,
      "kind": 7221,
      "Wol": 7222,
      "##AGE": 7223,
      "recognized": 7224,
      "##uvant": 7225,
      "Design": 7226,
      "mitig": 7227,
      "Johnson": 7228,
      "spontaneous": 7229,
      "##ulose": 7230,
      "adaptive": 7231,
      "gest": 7232,
      "dilution": 7233,
      "Jin": 7234,
      "##ago": 7235,
      "##rought": 7236,
      "GH": 7237,
      "##ocrine": 7238,
      "appeared": 7239,
      "##aints": 7240,
      "multic": 7241,
      "academic": 7242,
      "antic": 7243,
      "waste": 7244,
      "goal": 7245,
      "Pere": 7246,
      "##enin": 7247,
      ")=": 7248,
      "logistic": 7249,
      "##lammatory": 7250,
      "##RA": 7251,
      "Consequently": 7252,
      "mammalian": 7253,
      "##uits": 7254,
      "emission": 7255,
      "##ped": 7256,
      "Faculty": 7257,
      "##DA": 7258,
      "deficient": 7259,
      "clar": 7260,
      "##ovine": 7261,
      "##tress": 7262,
      "return": 7263,
      "Future": 7264,
      "edge": 7265,
      "HCC": 7266,
      "##DH": 7267,
      "Hence": 7268,
      "##ION": 7269,
      "Saf": 7270,
      "initially": 7271,
      "practical": 7272,
      "141": 7273,
      "DI": 7274,
      "##emy": 7275,
      "Abd": 7276,
      "Systems": 7277,
      "Lang": 7278,
      "Board": 7279,
      "phases": 7280,
      "suppression": 7281,
      "164": 7282,
      "Respir": 7283,
      "chromatin": 7284,
      "Early": 7285,
      "contributes": 7286,
      "degen": 7287,
      "##lated": 7288,
      "electroph": 7289,
      "serve": 7290,
      "computer": 7291,
      "Brief": 7292,
      "Tumor": 7293,
      "##ker": 7294,
      "149": 7295,
      "skills": 7296,
      "Off": 7297,
      "partially": 7298,
      "create": 7299,
      "MY": 7300,
      "OA": 7301,
      "licensee": 7302,
      "##ondence": 7303,
      "##ait": 7304,
      "traj": 7305,
      "sensing": 7306,
      "pow": 7307,
      "##uez": 7308,
      "Phil": 7309,
      "defic": 7310,
      "##cill": 7311,
      "##inement": 7312,
      "soluble": 7313,
      "SDS": 7314,
      "##104": 7315,
      "##leukin": 7316,
      "Wal": 7317,
      "##ington": 7318,
      "conduct": 7319,
      "Po": 7320,
      "##ichia": 7321,
      "predictors": 7322,
      "uses": 7323,
      "##106": 7324,
      "pil": 7325,
      "interfer": 7326,
      "FS": 7327,
      "operation": 7328,
      "##ded": 7329,
      "Bh": 7330,
      "##chi": 7331,
      "Den": 7332,
      "Hong": 7333,
      "##onym": 7334,
      "238": 7335,
      "##raw": 7336,
      "zone": 7337,
      "Structure": 7338,
      "Subsequently": 7339,
      "##itting": 7340,
      "ns": 7341,
      "##izoph": 7342,
      "polymerase": 7343,
      "lob": 7344,
      "##203": 7345,
      "asked": 7346,
      "SY": 7347,
      "makes": 7348,
      "precip": 7349,
      "retinal": 7350,
      "seem": 7351,
      "##ulence": 7352,
      "physic": 7353,
      "funded": 7354,
      "vehicle": 7355,
      "##orous": 7356,
      "##plicate": 7357,
      "Lop": 7358,
      "Pear": 7359,
      "sense": 7360,
      "##hou": 7361,
      "Paul": 7362,
      "Pt": 7363,
      "inher": 7364,
      "plane": 7365,
      "epis": 7366,
      "##bach": 7367,
      "##onom": 7368,
      "donor": 7369,
      "C15": 7370,
      "##idge": 7371,
      "theoretical": 7372,
      "adsorption": 7373,
      "Cost": 7374,
      "Reference": 7375,
      "##ady": 7376,
      "##uel": 7377,
      "LL": 7378,
      "childhood": 7379,
      "subunit": 7380,
      "Kle": 7381,
      "Fil": 7382,
      "##illa": 7383,
      "unclear": 7384,
      "Nucleic": 7385,
      "reconstruction": 7386,
      "ech": 7387,
      "fluorescent": 7388,
      "Impact": 7389,
      "Stre": 7390,
      "##ytical": 7391,
      "##ilities": 7392,
      "scler": 7393,
      "mell": 7394,
      "205": 7395,
      "stop": 7396,
      "##PH": 7397,
      "##rane": 7398,
      "##N2": 7399,
      "diverg": 7400,
      "repeat": 7401,
      "Next": 7402,
      "##arding": 7403,
      "scaff": 7404,
      "##FC": 7405,
      "##osine": 7406,
      "Chemistry": 7407,
      "fragments": 7408,
      "RO": 7409,
      "Leu": 7410,
      "Ros": 7411,
      "marrow": 7412,
      "vaccines": 7413,
      "infr": 7414,
      "receive": 7415,
      "Environmental": 7416,
      "Availability": 7417,
      "152": 7418,
      "Parkinson": 7419,
      "planning": 7420,
      "##aran": 7421,
      "Correl": 7422,
      "Ok": 7423,
      "Kl": 7424,
      "##pectives": 7425,
      "##tructure": 7426,
      "land": 7427,
      "transgenic": 7428,
      "apoptotic": 7429,
      "Young": 7430,
      "Institutional": 7431,
      "aj": 7432,
      "na": 7433,
      "##oud": 7434,
      "fungal": 7435,
      "##osystem": 7436,
      "RN": 7437,
      "Supporting": 7438,
      "BB": 7439,
      "predictions": 7440,
      "nine": 7441,
      "histone": 7442,
      "moth": 7443,
      "313": 7444,
      "agon": 7445,
      "accomp": 7446,
      "TN": 7447,
      "resection": 7448,
      "327": 7449,
      "##acing": 7450,
      "infar": 7451,
      "changed": 7452,
      "##arum": 7453,
      "forming": 7454,
      "largely": 7455,
      "consists": 7456,
      "standardized": 7457,
      "macrophage": 7458,
      "infectious": 7459,
      "credited": 7460,
      "immediately": 7461,
      "##plete": 7462,
      "too": 7463,
      "mA": 7464,
      "OP": 7465,
      "dimensions": 7466,
      "##ohydr": 7467,
      "Bioinformatics": 7468,
      "screen": 7469,
      "exchange": 7470,
      "##ories": 7471,
      "nervous": 7472,
      "Influ": 7473,
      "Drosophila": 7474,
      "Authors": 7475,
      "##ovic": 7476,
      "ACS": 7477,
      "VA": 7478,
      "unless": 7479,
      "accoun": 7480,
      "##outhern": 7481,
      "professional": 7482,
      "##ga": 7483,
      "diges": 7484,
      "magnitude": 7485,
      "limitation": 7486,
      "skeletal": 7487,
      "##cipl": 7488,
      "favor": 7489,
      "Water": 7490,
      "larv": 7491,
      "foot": 7492,
      "config": 7493,
      "thought": 7494,
      "Nag": 7495,
      "isoform": 7496,
      "necrosis": 7497,
      "documented": 7498,
      "MMP": 7499,
      "organisms": 7500,
      "orientation": 7501,
      "195": 7502,
      "##ca": 7503,
      "##queous": 7504,
      "inhibiting": 7505,
      "Hall": 7506,
      "##omonas": 7507,
      "Singh": 7508,
      "discharge": 7509,
      "Biophys": 7510,
      "Mah": 7511,
      "analog": 7512,
      "subset": 7513,
      "benz": 7514,
      "Ir": 7515,
      "\".": 7516,
      "educational": 7517,
      "##lip": 7518,
      "junction": 7519,
      "possibly": 7520,
      "retri": 7521,
      "trauma": 7522,
      "Compared": 7523,
      "supplementation": 7524,
      "KA": 7525,
      "##che": 7526,
      "##arn": 7527,
      "PLOS": 7528,
      "##ji": 7529,
      "restricted": 7530,
      "genus": 7531,
      "guide": 7532,
      "Self": 7533,
      "Prote": 7534,
      "Part": 7535,
      "1471": 7536,
      "sperm": 7537,
      "Francis": 7538,
      "January": 7539,
      "##class": 7540,
      "142": 7541,
      "chick": 7542,
      "148": 7543,
      "ent": 7544,
      "GF": 7545,
      "horiz": 7546,
      "hypoxia": 7547,
      "##breviations": 7548,
      "##This": 7549,
      "FE": 7550,
      "Calif": 7551,
      "easily": 7552,
      "Management": 7553,
      "##ei": 7554,
      "##elt": 7555,
      "surveillance": 7556,
      "NaCl": 7557,
      "318": 7558,
      "Spain": 7559,
      "Ren": 7560,
      "challenging": 7561,
      "contributing": 7562,
      "extension": 7563,
      "Represent": 7564,
      "dL": 7565,
      "##Res": 7566,
      "careg": 7567,
      "intrav": 7568,
      "Phase": 7569,
      "diluted": 7570,
      "possess": 7571,
      "siRNA": 7572,
      "Pi": 7573,
      "##entin": 7574,
      "visualization": 7575,
      "artificial": 7576,
      "arthritis": 7577,
      "simulated": 7578,
      "##wareness": 7579,
      "Top": 7580,
      "324": 7581,
      "maintaining": 7582,
      "Detection": 7583,
      "tetr": 7584,
      "##inants": 7585,
      "files": 7586,
      "HL": 7587,
      "##arged": 7588,
      "organs": 7589,
      "##path": 7590,
      "library": 7591,
      "C16": 7592,
      "##ja": 7593,
      "326": 7594,
      "Az": 7595,
      "melanoma": 7596,
      "emergency": 7597,
      "biochemical": 7598,
      "##150": 7599,
      "##tification": 7600,
      "pla": 7601,
      "##infor": 7602,
      "composed": 7603,
      "wt": 7604,
      "##vis": 7605,
      "Behav": 7606,
      "integrity": 7607,
      "##aud": 7608,
      "MK": 7609,
      "(<": 7610,
      "evaluating": 7611,
      "words": 7612,
      "Kumar": 7613,
      "untreated": 7614,
      "physicians": 7615,
      "##iciently": 7616,
      "1987": 7617,
      "Response": 7618,
      "harves": 7619,
      "##versely": 7620,
      "154": 7621,
      "322": 7622,
      "fa": 7623,
      "affili": 7624,
      "##oglobin": 7625,
      "rise": 7626,
      "##itol": 7627,
      "Gastroenter": 7628,
      "putative": 7629,
      "accepted": 7630,
      "Pur": 7631,
      "##ello": 7632,
      "occurring": 7633,
      "Comb": 7634,
      "##acu": 7635,
      "Evidence": 7636,
      "clon": 7637,
      "##ophage": 7638,
      "##asi": 7639,
      "distal": 7640,
      "RH": 7641,
      "pregnant": 7642,
      "treat": 7643,
      "English": 7644,
      "Shen": 7645,
      "##angl": 7646,
      "##elle": 7647,
      "standards": 7648,
      "remod": 7649,
      "ma": 7650,
      "cn": 7651,
      "##osqu": 7652,
      "embryos": 7653,
      "replicates": 7654,
      "##esthesia": 7655,
      "##oside": 7656,
      "##ilep": 7657,
      "293": 7658,
      "##TG": 7659,
      "situation": 7660,
      "Korea": 7661,
      "##ensen": 7662,
      "##RD": 7663,
      "cleavage": 7664,
      "remove": 7665,
      "elucid": 7666,
      "##environment": 7667,
      "satisfaction": 7668,
      "interpre": 7669,
      "##bc": 7670,
      "visible": 7671,
      "surfaces": 7672,
      "Internet": 7673,
      "##oline": 7674,
      "Ministry": 7675,
      "object": 7676,
      "neuron": 7677,
      "mitochondria": 7678,
      "Mn": 7679,
      "##poses": 7680,
      "##organisms": 7681,
      "deposition": 7682,
      "Under": 7683,
      "Wall": 7684,
      "JW": 7685,
      "consisted": 7686,
      "largest": 7687,
      "325": 7688,
      "JB": 7689,
      "released": 7690,
      "Mid": 7691,
      "Cle": 7692,
      "##eller": 7693,
      "biopsy": 7694,
      "foods": 7695,
      "##arcoma": 7696,
      "##onomy": 7697,
      "entry": 7698,
      "instrument": 7699,
      "Vacc": 7700,
      "Chronic": 7701,
      "##abe": 7702,
      "undergoing": 7703,
      "vulner": 7704,
      "187": 7705,
      "##break": 7706,
      "F1": 7707,
      "183": 7708,
      "Div": 7709,
      "##oney": 7710,
      "##otropic": 7711,
      "worldwide": 7712,
      "ana": 7713,
      "Many": 7714,
      "June": 7715,
      "##aphyl": 7716,
      "##ornia": 7717,
      "311": 7718,
      "verte": 7719,
      "excellent": 7720,
      "##ythm": 7721,
      "Conference": 7722,
      "Evolution": 7723,
      "tun": 7724,
      "##iop": 7725,
      "312": 7726,
      "A2": 7727,
      "routine": 7728,
      "hair": 7729,
      "##UT": 7730,
      "##actions": 7731,
      "abnormalities": 7732,
      "databases": 7733,
      "##CL": 7734,
      "##ali": 7735,
      "western": 7736,
      "##ysacchar": 7737,
      "184": 7738,
      "##uron": 7739,
      "LE": 7740,
      "substrates": 7741,
      "##vel": 7742,
      "Measure": 7743,
      "depic": 7744,
      "##lycer": 7745,
      "adjacent": 7746,
      "conform": 7747,
      "abundant": 7748,
      "##cel": 7749,
      "Consider": 7750,
      "substitution": 7751,
      "##omyc": 7752,
      "atheroscler": 7753,
      "Indian": 7754,
      "arterial": 7755,
      "##urally": 7756,
      ".:": 7757,
      "agreed": 7758,
      "800": 7759,
      "reviews": 7760,
      "interesting": 7761,
      "ischemic": 7762,
      "240": 7763,
      "disturb": 7764,
      "e0": 7765,
      "manip": 7766,
      "pal": 7767,
      "151": 7768,
      "compart": 7769,
      "Summ": 7770,
      "recurrent": 7771,
      "precise": 7772,
      "assisted": 7773,
      "Dig": 7774,
      "mature": 7775,
      "Oxford": 7776,
      "Gold": 7777,
      "Mach": 7778,
      "##fr": 7779,
      "1039": 7780,
      "stated": 7781,
      "Their": 7782,
      "ones": 7783,
      "C18": 7784,
      "confound": 7785,
      "##osphere": 7786,
      "why": 7787,
      "gold": 7788,
      "Cur": 7789,
      "sor": 7790,
      "##ulative": 7791,
      "Characterization": 7792,
      "emerging": 7793,
      "##izophren": 7794,
      "intended": 7795,
      "Contribution": 7796,
      "residue": 7797,
      "manifest": 7798,
      "vessels": 7799,
      "Council": 7800,
      "##C1": 7801,
      "permission": 7802,
      "##ocking": 7803,
      "Tai": 7804,
      "##ocarcinoma": 7805,
      "determining": 7806,
      "%;": 7807,
      "CNS": 7808,
      "##icin": 7809,
      "LB": 7810,
      "murine": 7811,
      "corrected": 7812,
      "##udg": 7813,
      "signalling": 7814,
      "influences": 7815,
      "depends": 7816,
      "AV": 7817,
      "ET": 7818,
      "##atically": 7819,
      "##uctive": 7820,
      "architecture": 7821,
      "improves": 7822,
      "Nurs": 7823,
      "##ej": 7824,
      "gastrointestinal": 7825,
      "##uries": 7826,
      "##xin": 7827,
      "California": 7828,
      "Fib": 7829,
      "Akt": 7830,
      "Pseud": 7831,
      "314": 7832,
      "coated": 7833,
      "nuclei": 7834,
      "enhancement": 7835,
      "Ret": 7836,
      "##tiers": 7837,
      "None": 7838,
      "Trop": 7839,
      "forest": 7840,
      "##uate": 7841,
      "162": 7842,
      "catalytic": 7843,
      "Normal": 7844,
      "##iley": 7845,
      "Population": 7846,
      "nutritional": 7847,
      "tob": 7848,
      "Prac": 7849,
      "Mont": 7850,
      "Metab": 7851,
      "##itoneal": 7852,
      "addressed": 7853,
      "Whit": 7854,
      "##ontin": 7855,
      "blocks": 7856,
      "mer": 7857,
      "compens": 7858,
      "regeneration": 7859,
      "ultim": 7860,
      "##ega": 7861,
      "##inosa": 7862,
      "197": 7863,
      "tomography": 7864,
      "undergo": 7865,
      "causal": 7866,
      "##aro": 7867,
      "nod": 7868,
      "rabbit": 7869,
      "obstr": 7870,
      "nurses": 7871,
      "kh": 7872,
      "shorter": 7873,
      "lymphocytes": 7874,
      "claims": 7875,
      "##isc": 7876,
      "suic": 7877,
      "##pm": 7878,
      "Quantit": 7879,
      "Escher": 7880,
      "##amate": 7881,
      "##term": 7882,
      "##plex": 7883,
      "Level": 7884,
      "KL": 7885,
      "ubiquitin": 7886,
      "partners": 7887,
      "haz": 7888,
      "028": 7889,
      "##illing": 7890,
      "electrical": 7891,
      "mim": 7892,
      "Asian": 7893,
      "scales": 7894,
      "vectors": 7895,
      "potenti": 7896,
      "loaded": 7897,
      "HER": 7898,
      "serious": 7899,
      "Est": 7900,
      "##uster": 7901,
      "##azole": 7902,
      "##b0": 7903,
      "Tissue": 7904,
      "Sev": 7905,
      "##wing": 7906,
      "##HS": 7907,
      "Miller": 7908,
      "endomet": 7909,
      "Sample": 7910,
      "covari": 7911,
      "##brane": 7912,
      "Line": 7913,
      "Different": 7914,
      "##igence": 7915,
      "share": 7916,
      "bed": 7917,
      "compet": 7918,
      "cytometry": 7919,
      "##metry": 7920,
      "biomarker": 7921,
      "##antum": 7922,
      "assumed": 7923,
      "Target": 7924,
      "##owel": 7925,
      "microbiome": 7926,
      "##arp": 7927,
      "interviews": 7928,
      "PW": 7929,
      "lands": 7930,
      "##idin": 7931,
      "IGF": 7932,
      "EGFR": 7933,
      "caps": 7934,
      "Import": 7935,
      "##bridge": 7936,
      "coupling": 7937,
      "Virus": 7938,
      "##aving": 7939,
      "##ees": 7940,
      "advantages": 7941,
      "Correspondence": 7942,
      "##kh": 7943,
      "##ewh": 7944,
      "Aldrich": 7945,
      "dried": 7946,
      "Escherichia": 7947,
      "0000000": 7948,
      "MV": 7949,
      "##ierarch": 7950,
      "pix": 7951,
      "evident": 7952,
      "Reviewer": 7953,
      "Syst": 7954,
      "##ios": 7955,
      "##endix": 7956,
      "##patient": 7957,
      "##entive": 7958,
      "Ot": 7959,
      "##ulture": 7960,
      "hepatitis": 7961,
      "Index": 7962,
      "Ele": 7963,
      "sem": 7964,
      "hip": 7965,
      "##jection": 7966,
      "calculate": 7967,
      "achiev": 7968,
      "##BA": 7969,
      "mediat": 7970,
      "EL": 7971,
      "LT": 7972,
      "hex": 7973,
      "demonstrating": 7974,
      "calculation": 7975,
      "##field": 7976,
      "Add": 7977,
      "ligands": 7978,
      "para": 7979,
      "##iminary": 7980,
      "##mal": 7981,
      "never": 7982,
      "building": 7983,
      "HO": 7984,
      "phenomenon": 7985,
      "alleles": 7986,
      "Xie": 7987,
      "zinc": 7988,
      "Hb": 7989,
      "feel": 7990,
      "Pap": 7991,
      "equil": 7992,
      "revised": 7993,
      "193": 7994,
      "Williams": 7995,
      "Gonz": 7996,
      "##003": 7997,
      "Conf": 7998,
      "oscill": 7999,
      "bovine": 8000,
      "investigations": 8001,
      "lum": 8002,
      "suffer": 8003,
      "Jr": 8004,
      "participated": 8005,
      "##rose": 8006,
      "tobacco": 8007,
      "immunos": 8008,
      "options": 8009,
      "Supplement": 8010,
      "##ologists": 8011,
      "urine": 8012,
      "overlap": 8013,
      "Guid": 8014,
      "apparent": 8015,
      "angiogenesis": 8016,
      "##ynec": 8017,
      "Ophthalm": 8018,
      "PI3": 8019,
      "demonstrates": 8020,
      "rehabilitation": 8021,
      "##tism": 8022,
      "providers": 8023,
      "fatigue": 8024,
      "Pain": 8025,
      "##inates": 8026,
      "##load": 8027,
      "Cox": 8028,
      "itself": 8029,
      "mellitus": 8030,
      "aortic": 8031,
      "subtypes": 8032,
      "Women": 8033,
      "caspase": 8034,
      "1001": 8035,
      "infiltration": 8036,
      "Dong": 8037,
      "##ger": 8038,
      "Prev": 8039,
      "##CD": 8040,
      "vertical": 8041,
      "separately": 8042,
      "##mental": 8043,
      "responsibility": 8044,
      "ranged": 8045,
      "diagram": 8046,
      "##uller": 8047,
      "window": 8048,
      "purchased": 8049,
      "##oclonal": 8050,
      "##ozygous": 8051,
      "Random": 8052,
      "fabric": 8053,
      "##wh": 8054,
      "Port": 8055,
      "##osquito": 8056,
      "Invitrogen": 8057,
      "Growth": 8058,
      "transformed": 8059,
      "sent": 8060,
      "relevance": 8061,
      "##elled": 8062,
      "196": 8063,
      "circulating": 8064,
      "280": 8065,
      "pharm": 8066,
      "##aya": 8067,
      "exception": 8068,
      "parasite": 8069,
      "Chrom": 8070,
      "##esh": 8071,
      "safe": 8072,
      "dorsal": 8073,
      "##116": 8074,
      "introduction": 8075,
      "sessions": 8076,
      "conclusions": 8077,
      "##wards": 8078,
      "##gens": 8079,
      "NJ": 8080,
      "##oded": 8081,
      "##oscopy": 8082,
      "Thomas": 8083,
      "Perform": 8084,
      "quad": 8085,
      "Activity": 8086,
      "PN": 8087,
      "Da": 8088,
      "Biotechnol": 8089,
      "none": 8090,
      "bands": 8091,
      "empir": 8092,
      "##mp": 8093,
      "225": 8094,
      "surrounding": 8095,
      "nursing": 8096,
      "bonds": 8097,
      "cad": 8098,
      "##anned": 8099,
      "Survey": 8100,
      "controlling": 8101,
      "##plicit": 8102,
      "solvent": 8103,
      "Applied": 8104,
      "##usp": 8105,
      "Toxic": 8106,
      "dependence": 8107,
      "December": 8108,
      "nutrient": 8109,
      "JF": 8110,
      "urinary": 8111,
      "##ensively": 8112,
      "DW": 8113,
      "##iy": 8114,
      "learn": 8115,
      "##izophrenia": 8116,
      "##****": 8117,
      "Lung": 8118,
      "exclusion": 8119,
      "206": 8120,
      "Pediatric": 8121,
      "##Int": 8122,
      "Shanghai": 8123,
      "##109": 8124,
      "##alities": 8125,
      "##rays": 8126,
      "simultaneously": 8127,
      "##immune": 8128,
      "##ibrium": 8129,
      "awareness": 8130,
      "##ciples": 8131,
      "amyloid": 8132,
      "Pres": 8133,
      "gal": 8134,
      "microenvironment": 8135,
      "treating": 8136,
      "neurological": 8137,
      "198": 8138,
      "230": 8139,
      "frame": 8140,
      "##entis": 8141,
      "Cross": 8142,
      "brief": 8143,
      "##L2": 8144,
      "DMSO": 8145,
      "alkal": 8146,
      "##Bs": 8147,
      "##transferase": 8148,
      "Suppl": 8149,
      "##bert": 8150,
      "Day": 8151,
      "actions": 8152,
      "retention": 8153,
      "aqueous": 8154,
      "functioning": 8155,
      "PPAR": 8156,
      "##iveness": 8157,
      "Luo": 8158,
      "Hs": 8159,
      "Characteristics": 8160,
      "persons": 8161,
      "172": 8162,
      "BJ": 8163,
      "##atum": 8164,
      "susceptible": 8165,
      "replacement": 8166,
      "KD": 8167,
      "multivariate": 8168,
      "##lam": 8169,
      "1986": 8170,
      "segmentation": 8171,
      "Breast": 8172,
      "##osal": 8173,
      "probes": 8174,
      "indicator": 8175,
      "LDL": 8176,
      "##traction": 8177,
      "##haus": 8178,
      "##ronch": 8179,
      "900": 8180,
      "##igar": 8181,
      "+/": 8182,
      "##107": 8183,
      "##erning": 8184,
      "##eres": 8185,
      "204": 8186,
      "##eda": 8187,
      "recruited": 8188,
      "limb": 8189,
      "Bone": 8190,
      "IA": 8191,
      "Lou": 8192,
      "vag": 8193,
      "##enerative": 8194,
      "Factors": 8195,
      "##yll": 8196,
      "Feng": 8197,
      "reflections": 8198,
      "declared": 8199,
      "NAD": 8200,
      "heavy": 8201,
      "annotation": 8202,
      "##isph": 8203,
      "facilities": 8204,
      "##eni": 8205,
      "localized": 8206,
      "leukemia": 8207,
      "beam": 8208,
      "hydroly": 8209,
      "##olecules": 8210,
      "::": 8211,
      "##ko": 8212,
      "consisting": 8213,
      "Arg": 8214,
      "##ngoing": 8215,
      "proximal": 8216,
      "##rod": 8217,
      "Epidemiology": 8218,
      "194": 8219,
      "construction": 8220,
      "##tors": 8221,
      "Flow": 8222,
      "annual": 8223,
      "Fed": 8224,
      "outbreak": 8225,
      "##ober": 8226,
      "adequate": 8227,
      "glob": 8228,
      "scanning": 8229,
      "microarray": 8230,
      "Lind": 8231,
      "##eri": 8232,
      "##aterials": 8233,
      "Hay": 8234,
      "##mid": 8235,
      "Hem": 8236,
      "strom": 8237,
      "##ques": 8238,
      "##ancing": 8239,
      "kD": 8240,
      "ijms": 8241,
      "Pet": 8242,
      "visc": 8243,
      "fri": 8244,
      "Academy": 8245,
      "volum": 8246,
      "036": 8247,
      "vital": 8248,
      "##anger": 8249,
      "##amental": 8250,
      "##letion": 8251,
      "IT": 8252,
      "##odon": 8253,
      "##umatic": 8254,
      "connectivity": 8255,
      "##puts": 8256,
      "Bayes": 8257,
      "##wa": 8258,
      "mask": 8259,
      "188": 8260,
      "##part": 8261,
      "prolonged": 8262,
      "##key": 8263,
      "Report": 8264,
      "household": 8265,
      "namely": 8266,
      "session": 8267,
      "predictor": 8268,
      "NIH": 8269,
      "amplified": 8270,
      "Mas": 8271,
      "##izer": 8272,
      "Abbreviations": 8273,
      "capable": 8274,
      "Oncology": 8275,
      "nearly": 8276,
      "##orator": 8277,
      "overview": 8278,
      "parad": 8279,
      "##odynamic": 8280,
      "##E2": 8281,
      "unp": 8282,
      "##opo": 8283,
      "##eyer": 8284,
      "##burg": 8285,
      "restriction": 8286,
      "LP": 8287,
      "combinations": 8288,
      "##avelength": 8289,
      "larvae": 8290,
      "equally": 8291,
      "derivatives": 8292,
      "contribut": 8293,
      "1109": 8294,
      "##chemical": 8295,
      "metall": 8296,
      "rig": 8297,
      "consult": 8298,
      "indices": 8299,
      "##roptosis": 8300,
      "Intr": 8301,
      "spin": 8302,
      "gamma": 8303,
      "Prevention": 8304,
      "mothers": 8305,
      "pulse": 8306,
      "Luc": 8307,
      "supports": 8308,
      "ethical": 8309,
      "newly": 8310,
      "unders": 8311,
      "Liang": 8312,
      "Acknowledgements": 8313,
      "intention": 8314,
      "cohorts": 8315,
      "clean": 8316,
      "fever": 8317,
      "inside": 8318,
      "##igenetic": 8319,
      "ICU": 8320,
      "comments": 8321,
      "Systematic": 8322,
      "cultural": 8323,
      "##In": 8324,
      "reinfor": 8325,
      "embryonic": 8326,
      "Pac": 8327,
      "##Research": 8328,
      "328": 8329,
      "##ches": 8330,
      "##CS": 8331,
      "recombination": 8332,
      "Harr": 8333,
      "Serum": 8334,
      "Enh": 8335,
      "paired": 8336,
      "fewer": 8337,
      "Hepat": 8338,
      "GAB": 8339,
      "bleeding": 8340,
      "disability": 8341,
      "synerg": 8342,
      "Grant": 8343,
      "##fusion": 8344,
      "supernatant": 8345,
      "attemp": 8346,
      "##imb": 8347,
      "Statistics": 8348,
      "intensive": 8349,
      "EEG": 8350,
      "Tay": 8351,
      "limits": 8352,
      "ecological": 8353,
      "##ager": 8354,
      "immunotherapy": 8355,
      "##ifestyle": 8356,
      "trees": 8357,
      "##ensed": 8358,
      "Declar": 8359,
      "##GFP": 8360,
      "Acute": 8361,
      "189": 8362,
      "performing": 8363,
      "##cephal": 8364,
      "threat": 8365,
      "Opin": 8366,
      "##MP": 8367,
      "histological": 8368,
      "mobile": 8369,
      "peroxid": 8370,
      "mesenchymal": 8371,
      "ice": 8372,
      "fine": 8373,
      "morbidity": 8374,
      "161": 8375,
      "Dom": 8376,
      "Frontiers": 8377,
      "null": 8378,
      "knockdown": 8379,
      "Prog": 8380,
      "visits": 8381,
      "adding": 8382,
      "Determ": 8383,
      "##irm": 8384,
      "nutrition": 8385,
      "video": 8386,
      "P2": 8387,
      "RCT": 8388,
      "Prevalence": 8389,
      "tyros": 8390,
      "regulator": 8391,
      "Ques": 8392,
      "mTOR": 8393,
      "##sch": 8394,
      "##idi": 8395,
      "FP": 8396,
      "inducing": 8397,
      "##EP": 8398,
      "preventing": 8399,
      "Tel": 8400,
      "operating": 8401,
      "medications": 8402,
      "##amous": 8403,
      "##ief": 8404,
      "accurately": 8405,
      "engineering": 8406,
      "irradiation": 8407,
      "Estim": 8408,
      "outer": 8409,
      "colle": 8410,
      "##108": 8411,
      "prel": 8412,
      "assistance": 8413,
      "##ticul": 8414,
      "Roy": 8415,
      "nano": 8416,
      "##NK": 8417,
      "s414": 8418,
      "predominantly": 8419,
      "##alez": 8420,
      "decreasing": 8421,
      "exclus": 8422,
      "aug": 8423,
      "parental": 8424,
      "define": 8425,
      "##ui": 8426,
      "##enberg": 8427,
      "##ompass": 8428,
      "PI3K": 8429,
      "distress": 8430,
      "##itrate": 8431,
      "Real": 8432,
      "metrics": 8433,
      "##idel": 8434,
      "figures": 8435,
      "hoc": 8436,
      "Pearson": 8437,
      "Beck": 8438,
      "bladder": 8439,
      "Representative": 8440,
      "absent": 8441,
      "sepsis": 8442,
      "##obacterium": 8443,
      "Republic": 8444,
      "Orig": 8445,
      "##ract": 8446,
      "##G2": 8447,
      "##rive": 8448,
      "engagement": 8449,
      "prefer": 8450,
      "Synthesis": 8451,
      "##PSS": 8452,
      "##Cl2": 8453,
      "Good": 8454,
      "vein": 8455,
      "chamber": 8456,
      "submitted": 8457,
      "##urated": 8458,
      "perc": 8459,
      "##ocytosis": 8460,
      "Wood": 8461,
      "MAPK": 8462,
      "Visualization": 8463,
      "metastases": 8464,
      "lineage": 8465,
      "Silva": 8466,
      "##AMA": 8467,
      "biomass": 8468,
      "enough": 8469,
      "corn": 8470,
      "encour": 8471,
      "Pediatr": 8472,
      "##umulative": 8473,
      "platelet": 8474,
      "Ye": 8475,
      "256": 8476,
      "photos": 8477,
      "Endocrinol": 8478,
      "illustrated": 8479,
      "neighb": 8480,
      "Mats": 8481,
      "bird": 8482,
      "Der": 8483,
      "pmc1": 8484,
      "Stress": 8485,
      "##ony": 8486,
      "coating": 8487,
      "##oked": 8488,
      "##ivariate": 8489,
      "scenarios": 8490,
      "fear": 8491,
      "##Net": 8492,
      "radiotherapy": 8493,
      "##oglyc": 8494,
      "182": 8495,
      "highlight": 8496,
      "Innov": 8497,
      "M2": 8498,
      "##levi": 8499,
      "bor": 8500,
      "##cell": 8501,
      "virulence": 8502,
      "decisions": 8503,
      "encompass": 8504,
      "pooled": 8505,
      "infarction": 8506,
      "injuries": 8507,
      "##hydr": 8508,
      "Regulation": 8509,
      "Lew": 8510,
      "##lammation": 8511,
      "##otyping": 8512,
      "pure": 8513,
      "rout": 8514,
      "##ava": 8515,
      "delayed": 8516,
      "Changes": 8517,
      "##anine": 8518,
      "pron": 8519,
      "##A2": 8520,
      "##amer": 8521,
      "Obs": 8522,
      "Province": 8523,
      "E2": 8524,
      "Et": 8525,
      "formula": 8526,
      "conjugated": 8527,
      "phyt": 8528,
      "VS": 8529,
      "##acerb": 8530,
      "cardiomy": 8531,
      "##acterial": 8532,
      "MDA": 8533,
      "Gonzalez": 8534,
      "becomes": 8535,
      "##atase": 8536,
      "web": 8537,
      "Cambridge": 8538,
      "obese": 8539,
      "171": 8540,
      "Dan": 8541,
      "neonatal": 8542,
      "biofilm": 8543,
      "##ropsych": 8544,
      "##omers": 8545,
      "spectral": 8546,
      "##auer": 8547,
      "Lact": 8548,
      "mosquito": 8549,
      "1985": 8550,
      "##MO": 8551,
      "##apar": 8552,
      "##tiviral": 8553,
      "(+-": 8554,
      "Log": 8555,
      "assessments": 8556,
      "wavelength": 8557,
      "Wr": 8558,
      "##ken": 8559,
      "OM": 8560,
      "outl": 8561,
      "HDL": 8562,
      "##nes": 8563,
      "##AMP": 8564,
      "Community": 8565,
      "Lopez": 8566,
      "##B2": 8567,
      "Liver": 8568,
      "intrinsic": 8569,
      "Its": 8570,
      "GI": 8571,
      "Cp": 8572,
      "powder": 8573,
      "trop": 8574,
      "dispers": 8575,
      "203": 8576,
      "mess": 8577,
      "films": 8578,
      "ROC": 8579,
      "dendritic": 8580,
      "##osc": 8581,
      "##bes": 8582,
      "senes": 8583,
      "Martinez": 8584,
      "spp": 8585,
      "appearance": 8586,
      "Individual": 8587,
      "##electric": 8588,
      "net": 8589,
      "movements": 8590,
      "##DS": 8591,
      "##aceutical": 8592,
      "Iran": 8593,
      "##Bio": 8594,
      "ranges": 8595,
      "profiling": 8596,
      "muscles": 8597,
      "reading": 8598,
      "persistent": 8599,
      "chest": 8600,
      "consistently": 8601,
      "stronger": 8602,
      "Student": 8603,
      "C17": 8604,
      "substance": 8605,
      "##factory": 8606,
      "potent": 8607,
      "KR": 8608,
      "univers": 8609,
      "meet": 8610,
      "request": 8611,
      "implant": 8612,
      "Hal": 8613,
      "##002": 8614,
      "Quantitative": 8615,
      "Ji": 8616,
      "Gib": 8617,
      "please": 8618,
      "spectroscopy": 8619,
      "neph": 8620,
      "##ping": 8621,
      "##osed": 8622,
      "innate": 8623,
      "231": 8624,
      "Rodriguez": 8625,
      "Altern": 8626,
      "208": 8627,
      "##OG": 8628,
      "Tok": 8629,
      "antigens": 8630,
      "##ahl": 8631,
      "ongoing": 8632,
      "##rees": 8633,
      "lacking": 8634,
      "##osan": 8635,
      "CAR": 8636,
      "summarized": 8637,
      "##igm": 8638,
      "##tilage": 8639,
      "highlights": 8640,
      "207": 8641,
      "presenting": 8642,
      "Ext": 8643,
      "##ylated": 8644,
      "contents": 8645,
      "aims": 8646,
      "Kir": 8647,
      "EH": 8648,
      "maturation": 8649,
      "hippocampus": 8650,
      "dehydro": 8651,
      "##ania": 8652,
      "inner": 8653,
      "precursor": 8654,
      "distances": 8655,
      "MET": 8656,
      "exon": 8657,
      "weights": 8658,
      "utilizing": 8659,
      "hippocampal": 8660,
      "relax": 8661,
      "Jac": 8662,
      "depressive": 8663,
      "##pi": 8664,
      "supply": 8665,
      "finger": 8666,
      "industry": 8667,
      "Fan": 8668,
      "statements": 8669,
      "##eptide": 8670,
      "Biosci": 8671,
      "Small": 8672,
      "epidemi": 8673,
      "##CAM": 8674,
      "Sept": 8675,
      "Wnt": 8676,
      "segments": 8677,
      "##mented": 8678,
      "policies": 8679,
      "##ervation": 8680,
      "##D1": 8681,
      "fractions": 8682,
      "unf": 8683,
      "##ynthetic": 8684,
      "Family": 8685,
      "##yzed": 8686,
      "Briefly": 8687,
      "Mer": 8688,
      "##AST": 8689,
      "manual": 8690,
      "transient": 8691,
      "mineral": 8692,
      "##hn": 8693,
      "July": 8694,
      "TJ": 8695,
      "Ter": 8696,
      "+,": 8697,
      "consideration": 8698,
      "activate": 8699,
      "M1": 8700,
      "monitored": 8701,
      "Ross": 8702,
      "covered": 8703,
      "Samples": 8704,
      "fre": 8705,
      "exhibits": 8706,
      "retro": 8707,
      "##eto": 8708,
      "obvious": 8709,
      "Sand": 8710,
      "ethyl": 8711,
      "traff": 8712,
      "##101": 8713,
      "microglia": 8714,
      "correlates": 8715,
      "lipids": 8716,
      "Consent": 8717,
      "adipose": 8718,
      "monoclonal": 8719,
      "aggregation": 8720,
      "Cohen": 8721,
      "pi": 8722,
      "iter": 8723,
      "enable": 8724,
      "##As": 8725,
      "amb": 8726,
      "timing": 8727,
      "chromatography": 8728,
      "##anged": 8729,
      "##alli": 8730,
      "##enop": 8731,
      "elic": 8732,
      "##ames": 8733,
      "albumin": 8734,
      "H2O2": 8735,
      "lymphoma": 8736,
      "observe": 8737,
      "prevalent": 8738,
      "##uctu": 8739,
      "ideal": 8740,
      "Pathol": 8741,
      "Equation": 8742,
      "offers": 8743,
      "microorganisms": 8744,
      "insight": 8745,
      "transfection": 8746,
      "filtered": 8747,
      "detecting": 8748,
      "younger": 8749,
      "thym": 8750,
      "Positive": 8751,
      "##times": 8752,
      "careful": 8753,
      "##urt": 8754,
      "##uber": 8755,
      "kDa": 8756,
      "##amoto": 8757,
      "AND": 8758,
      "##platin": 8759,
      "influencing": 8760,
      "##zy": 8761,
      "##zyme": 8762,
      "elong": 8763,
      "##V1": 8764,
      "optimized": 8765,
      "Tw": 8766,
      "displacement": 8767,
      "Source": 8768,
      "##elves": 8769,
      "hot": 8770,
      "Yuan": 8771,
      "Isol": 8772,
      "fitness": 8773,
      "##125": 8774,
      "Lik": 8775,
      "##oracic": 8776,
      "##ications": 8777,
      "semi": 8778,
      "exacerb": 8779,
      "##izumab": 8780,
      "horizontal": 8781,
      "dogs": 8782,
      "##ries": 8783,
      "##metric": 8784,
      "181": 8785,
      "activating": 8786,
      "mobility": 8787,
      "##pe": 8788,
      "trait": 8789,
      "##born": 8790,
      "fibr": 8791,
      "Nano": 8792,
      "Sep": 8793,
      "##BR": 8794,
      "Appendix": 8795,
      "observational": 8796,
      "explanation": 8797,
      "##aba": 8798,
      "Transl": 8799,
      "Increased": 8800,
      "sched": 8801,
      "stay": 8802,
      "kept": 8803,
      "COPD": 8804,
      "neurodeg": 8805,
      "pilot": 8806,
      "Russ": 8807,
      "##idities": 8808,
      "ideas": 8809,
      "BT": 8810,
      "keep": 8811,
      "##rim": 8812,
      "##IV": 8813,
      "Beij": 8814,
      "Regarding": 8815,
      "223": 8816,
      "Poly": 8817,
      "colleag": 8818,
      "City": 8819,
      "von": 8820,
      "conservation": 8821,
      "Catal": 8822,
      "depletion": 8823,
      "spectrometry": 8824,
      "Sweden": 8825,
      "##anti": 8826,
      "##ifier": 8827,
      "considerable": 8828,
      "law": 8829,
      "##obacteria": 8830,
      "Don": 8831,
      "##aint": 8832,
      "encoun": 8833,
      "Well": 8834,
      "changing": 8835,
      "East": 8836,
      "adapted": 8837,
      "phenotypic": 8838,
      "pert": 8839,
      "##160": 8840,
      "4degC": 8841,
      "Body": 8842,
      "Bern": 8843,
      "phenyl": 8844,
      "270": 8845,
      "ischemia": 8846,
      "nit": 8847,
      "scal": 8848,
      "scenario": 8849,
      "##ebraf": 8850,
      "centers": 8851,
      "chromosomes": 8852,
      "quar": 8853,
      "##uginosa": 8854,
      "Genomics": 8855,
      "##pin": 8856,
      "implicated": 8857,
      "Optim": 8858,
      "Phen": 8859,
      "##ebrafish": 8860,
      "##ports": 8861,
      "Occ": 8862,
      "sound": 8863,
      "LG": 8864,
      "##rect": 8865,
      "Kang": 8866,
      "specified": 8867,
      "A1": 8868,
      "RV": 8869,
      "##ophageal": 8870,
      "##MC": 8871,
      "defect": 8872,
      "##omical": 8873,
      "improvements": 8874,
      "distinguish": 8875,
      "reasonable": 8876,
      "192": 8877,
      "principal": 8878,
      "motifs": 8879,
      "S5": 8880,
      "venti": 8881,
      "neutrophils": 8882,
      "brown": 8883,
      "1365": 8884,
      "##ris": 8885,
      "tag": 8886,
      "lost": 8887,
      "Xiao": 8888,
      "cavity": 8889,
      "progressive": 8890,
      "allevi": 8891,
      "037": 8892,
      "necessarily": 8893,
      "vesicles": 8894,
      "tracking": 8895,
      "##iers": 8896,
      "ulc": 8897,
      "LH": 8898,
      "Learning": 8899,
      "Conn": 8900,
      "Specific": 8901,
      "rating": 8902,
      "Perc": 8903,
      "260": 8904,
      "corresponds": 8905,
      "differentiated": 8906,
      "publish": 8907,
      "Law": 8908,
      "perspectives": 8909,
      "##inating": 8910,
      "Interest": 8911,
      "applying": 8912,
      "FIG": 8913,
      "arom": 8914,
      "prep": 8915,
      "Any": 8916,
      "##criptive": 8917,
      "##133": 8918,
      "##uki": 8919,
      "##sky": 8920,
      "eyes": 8921,
      "uter": 8922,
      "HH": 8923,
      "##otides": 8924,
      "trim": 8925,
      "##clinical": 8926,
      "##102": 8927,
      "rRNA": 8928,
      "Median": 8929,
      "##CAT": 8930,
      "ways": 8931,
      "KS": 8932,
      "acetate": 8933,
      "season": 8934,
      "NLR": 8935,
      "##pect": 8936,
      "Phosph": 8937,
      "Vir": 8938,
      "Performance": 8939,
      "pell": 8940,
      "RMS": 8941,
      "Library": 8942,
      "schizophrenia": 8943,
      "interc": 8944,
      "Evol": 8945,
      "##kins": 8946,
      "fungi": 8947,
      "gmail": 8948,
      "flux": 8949,
      "codes": 8950,
      "##URE": 8951,
      "aeruginosa": 8952,
      "##rd": 8953,
      "started": 8954,
      "protease": 8955,
      "##iculties": 8956,
      "mom": 8957,
      "Meta": 8958,
      "She": 8959,
      "Far": 8960,
      "##NPs": 8961,
      "##rah": 8962,
      "penetr": 8963,
      "##rotein": 8964,
      "plasticity": 8965,
      "extremely": 8966,
      "persist": 8967,
      "insertion": 8968,
      "Expl": 8969,
      "nons": 8970,
      "template": 8971,
      "eosin": 8972,
      "Mex": 8973,
      "##asome": 8974,
      "Hen": 8975,
      "##arma": 8976,
      "BE": 8977,
      "Clark": 8978,
      "##F2": 8979,
      "##Introduction": 8980,
      "immunohist": 8981,
      "undersc": 8982,
      "thor": 8983,
      "Contributions": 8984,
      "pharmacological": 8985,
      "Beijing": 8986,
      "Virol": 8987,
      "P1": 8988,
      "accompan": 8989,
      "England": 8990,
      "##isch": 8991,
      "depicted": 8992,
      "Orthop": 8993,
      "''": 8994,
      "HU": 8995,
      "Mend": 8996,
      "airway": 8997,
      "April": 8998,
      "##ographical": 8999,
      "failed": 9000,
      "Peters": 9001,
      "##ukary": 9002,
      "scheme": 9003,
      "##griculture": 9004,
      "##opol": 9005,
      "beginning": 9006,
      "1155": 9007,
      "upregulation": 9008,
      "organizations": 9009,
      "##ulates": 9010,
      "opinions": 9011,
      "electroly": 9012,
      "cytotoxic": 9013,
      "determinants": 9014,
      "substances": 9015,
      "Cao": 9016,
      "pmcIntroduction": 9017,
      "automated": 9018,
      "DB": 9019,
      "'.": 9020,
      "lifestyle": 9021,
      "##ipped": 9022,
      "##PLoS": 9023,
      "polymorphism": 9024,
      "October": 9025,
      "gray": 9026,
      "consistency": 9027,
      "om": 9028,
      "Recently": 9029,
      "##ocomp": 9030,
      "Mice": 9031,
      "Agr": 9032,
      "mand": 9033,
      "Please": 9034,
      "##economic": 9035,
      "embedded": 9036,
      "Aging": 9037,
      "electric": 9038,
      "##opes": 9039,
      "epit": 9040,
      "fluctu": 9041,
      "marine": 9042,
      "Let": 9043,
      "Sar": 9044,
      "Figs": 9045,
      "Polic": 9046,
      "remodeling": 9047,
      "Therapy": 9048,
      "lipoprotein": 9049,
      "Tom": 9050,
      "preference": 9051,
      "##icking": 9052,
      "utility": 9053,
      "Are": 9054,
      "DK": 9055,
      "Pul": 9056,
      "attitudes": 9057,
      "Ov": 9058,
      "##ialysis": 9059,
      "responsive": 9060,
      "colleagues": 9061,
      "Taiwan": 9062,
      "Structural": 9063,
      "227": 9064,
      "##ache": 9065,
      "pel": 9066,
      "275": 9067,
      "regardless": 9068,
      "vessel": 9069,
      "arth": 9070,
      "235": 9071,
      "epilep": 9072,
      "PAR": 9073,
      "##sa": 9074,
      "remark": 9075,
      "##ilience": 9076,
      "Cro": 9077,
      "Conversely": 9078,
      "RI": 9079,
      "##MT": 9080,
      "1980": 9081,
      "##Hg": 9082,
      "Choi": 9083,
      "Potential": 9084,
      "hence": 9085,
      "synchron": 9086,
      "##300": 9087,
      "calculations": 9088,
      "##hol": 9089,
      "360": 9090,
      "##auc": 9091,
      "##ofluorescence": 9092,
      "##assium": 9093,
      "HCV": 9094,
      "##1a": 9095,
      "##ching": 9096,
      "virtual": 9097,
      "interleukin": 9098,
      "September": 9099,
      "##202": 9100,
      "##oidal": 9101,
      "##trict": 9102,
      "Mental": 9103,
      "##words": 9104,
      "##AN": 9105,
      "##gal": 9106,
      "kinetics": 9107,
      "##lux": 9108,
      "Wash": 9109,
      "##flow": 9110,
      "hierarch": 9111,
      "##appa": 9112,
      "vacu": 9113,
      "emerged": 9114,
      "aligned": 9115,
      "040": 9116,
      "S00": 9117,
      "TK": 9118,
      "450": 9119,
      "Ki": 9120,
      "Tian": 9121,
      "cytotoxicity": 9122,
      "tens": 9123,
      "##ervised": 9124,
      "reper": 9125,
      "chains": 9126,
      "meeting": 9127,
      "035": 9128,
      "wa": 9129,
      "Obst": 9130,
      "s41598": 9131,
      "Gil": 9132,
      "breeding": 9133,
      "hemorrh": 9134,
      "wheat": 9135,
      "##LP": 9136,
      "HJ": 9137,
      "scatter": 9138,
      "cust": 9139,
      "dehydrogen": 9140,
      "walking": 9141,
      "Francisco": 9142,
      "calibration": 9143,
      "Anderson": 9144,
      "209": 9145,
      "Sr": 9146,
      "continued": 9147,
      "encoded": 9148,
      "JAMA": 9149,
      "cool": 9150,
      "##icz": 9151,
      "Neuroscience": 9152,
      "Through": 9153,
      "closed": 9154,
      "Schw": 9155,
      "psychiatric": 9156,
      "art": 9157,
      "SPSS": 9158,
      "fractures": 9159,
      "shaped": 9160,
      "Sz": 9161,
      "Stem": 9162,
      "atm": 9163,
      "promin": 9164,
      "CVD": 9165,
      "fo": 9166,
      "permeability": 9167,
      "carbohydr": 9168,
      "Taylor": 9169,
      "market": 9170,
      "atrial": 9171,
      "##teine": 9172,
      "kb": 9173,
      "Biotechnology": 9174,
      "cytoplasmic": 9175,
      "%-": 9176,
      "Psychology": 9177,
      "##EB": 9178,
      "Epidem": 9179,
      "2A": 9180,
      "Summary": 9181,
      "##sc": 9182,
      "277": 9183,
      "Salmon": 9184,
      "##cepts": 9185,
      "guidance": 9186,
      "Tris": 9187,
      "Param": 9188,
      "cigar": 9189,
      "opportunities": 9190,
      "Ecol": 9191,
      "Eg": 9192,
      "narrow": 9193,
      "Wilson": 9194,
      "##avi": 9195,
      "038": 9196,
      "EN": 9197,
      "analytical": 9198,
      "##uda": 9199,
      "Zhong": 9200,
      "##115": 9201,
      "driving": 9202,
      "')": 9203,
      "##aboration": 9204,
      "LF": 9205,
      "##pread": 9206,
      "mother": 9207,
      "##asty": 9208,
      "Publishing": 9209,
      "McG": 9210,
      "PCA": 9211,
      "##ipment": 9212,
      "O3": 9213,
      "WA": 9214,
      "##RC": 9215,
      "##osing": 9216,
      "decom": 9217,
      "Accessed": 9218,
      "bowel": 9219,
      "##ounced": 9220,
      "roots": 9221,
      "thems": 9222,
      "understood": 9223,
      "centrifuged": 9224,
      "attack": 9225,
      "##iding": 9226,
      "290": 9227,
      "arrows": 9228,
      "ecosystem": 9229,
      "themselves": 9230,
      "exploration": 9231,
      "Khan": 9232,
      "##ila": 9233,
[...]
